const unsigned char gas_leak_model_tflite[] = {
  0x1c, 0x00, 0x00, 0x00, 0x54, 0x46, 0x4c, 0x33, 0x14, 0x00, 0x20, 0x00,
  0x1c, 0x00, 0x18, 0x00, 0x14, 0x00, 0x10, 0x00, 0x0c, 0x00, 0x00, 0x00,
  0x08, 0x00, 0x04, 0x00, 0x14, 0x00, 0x00, 0x00, 0x1c, 0x00, 0x00, 0x00,
  0x98, 0x00, 0x00, 0x00, 0xf0, 0x00, 0x00, 0x00, 0x4c, 0x0f, 0x00, 0x00,
  0x5c, 0x0f, 0x00, 0x00, 0xfc, 0x18, 0x00, 0x00, 0x03, 0x00, 0x00, 0x00,
  0x01, 0x00, 0x00, 0x00, 0x10, 0x00, 0x00, 0x00, 0x00, 0x00, 0x0a, 0x00,
  0x10, 0x00, 0x0c, 0x00, 0x08, 0x00, 0x04, 0x00, 0x0a, 0x00, 0x00, 0x00,
  0x0c, 0x00, 0x00, 0x00, 0x1c, 0x00, 0x00, 0x00, 0x3c, 0x00, 0x00, 0x00,
  0x0f, 0x00, 0x00, 0x00, 0x73, 0x65, 0x72, 0x76, 0x69, 0x6e, 0x67, 0x5f,
  0x64, 0x65, 0x66, 0x61, 0x75, 0x6c, 0x74, 0x00, 0x01, 0x00, 0x00, 0x00,
  0x04, 0x00, 0x00, 0x00, 0x90, 0xff, 0xff, 0xff, 0x11, 0x00, 0x00, 0x00,
  0x04, 0x00, 0x00, 0x00, 0x08, 0x00, 0x00, 0x00, 0x6f, 0x75, 0x74, 0x70,
  0x75, 0x74, 0x5f, 0x30, 0x00, 0x00, 0x00, 0x00, 0x01, 0x00, 0x00, 0x00,
  0x04, 0x00, 0x00, 0x00, 0x9e, 0xf0, 0xff, 0xff, 0x04, 0x00, 0x00, 0x00,
  0x0c, 0x00, 0x00, 0x00, 0x6b, 0x65, 0x72, 0x61, 0x73, 0x5f, 0x74, 0x65,
  0x6e, 0x73, 0x6f, 0x72, 0x00, 0x00, 0x00, 0x00, 0x02, 0x00, 0x00, 0x00,
  0x34, 0x00, 0x00, 0x00, 0x04, 0x00, 0x00, 0x00, 0xdc, 0xff, 0xff, 0xff,
  0x14, 0x00, 0x00, 0x00, 0x04, 0x00, 0x00, 0x00, 0x13, 0x00, 0x00, 0x00,
  0x43, 0x4f, 0x4e, 0x56, 0x45, 0x52, 0x53, 0x49, 0x4f, 0x4e, 0x5f, 0x4d,
  0x45, 0x54, 0x41, 0x44, 0x41, 0x54, 0x41, 0x00, 0x08, 0x00, 0x0c, 0x00,
  0x08, 0x00, 0x04, 0x00, 0x08, 0x00, 0x00, 0x00, 0x13, 0x00, 0x00, 0x00,
  0x04, 0x00, 0x00, 0x00, 0x13, 0x00, 0x00, 0x00, 0x6d, 0x69, 0x6e, 0x5f,
  0x72, 0x75, 0x6e, 0x74, 0x69, 0x6d, 0x65, 0x5f, 0x76, 0x65, 0x72, 0x73,
  0x69, 0x6f, 0x6e, 0x00, 0x15, 0x00, 0x00, 0x00, 0x58, 0x0e, 0x00, 0x00,
  0x50, 0x0e, 0x00, 0x00, 0x20, 0x0e, 0x00, 0x00, 0xd0, 0x0d, 0x00, 0x00,
  0x40, 0x0d, 0x00, 0x00, 0x24, 0x0d, 0x00, 0x00, 0xb4, 0x0c, 0x00, 0x00,
  0xa4, 0x0a, 0x00, 0x00, 0x94, 0x02, 0x00, 0x00, 0x04, 0x01, 0x00, 0x00,
  0xe8, 0x00, 0x00, 0x00, 0xcc, 0x00, 0x00, 0x00, 0xc4, 0x00, 0x00, 0x00,
  0xbc, 0x00, 0x00, 0x00, 0xb4, 0x00, 0x00, 0x00, 0xac, 0x00, 0x00, 0x00,
  0xa4, 0x00, 0x00, 0x00, 0x9c, 0x00, 0x00, 0x00, 0x94, 0x00, 0x00, 0x00,
  0x74, 0x00, 0x00, 0x00, 0x04, 0x00, 0x00, 0x00, 0x6e, 0xf1, 0xff, 0xff,
  0x04, 0x00, 0x00, 0x00, 0x60, 0x00, 0x00, 0x00, 0x0c, 0x00, 0x00, 0x00,
  0x08, 0x00, 0x0e, 0x00, 0x08, 0x00, 0x04, 0x00, 0x08, 0x00, 0x00, 0x00,
  0x10, 0x00, 0x00, 0x00, 0x28, 0x00, 0x00, 0x00, 0x00, 0x00, 0x06, 0x00,
  0x08, 0x00, 0x04, 0x00, 0x06, 0x00, 0x00, 0x00, 0x04, 0x00, 0x00, 0x00,
  0x01, 0x00, 0x00, 0x00, 0xea, 0x03, 0x00, 0x00, 0x0c, 0x00, 0x18, 0x00,
  0x14, 0x00, 0x10, 0x00, 0x0c, 0x00, 0x04, 0x00, 0x0c, 0x00, 0x00, 0x00,
  0x14, 0x36, 0xf5, 0x4c, 0xe0, 0x91, 0x4b, 0x38, 0x02, 0x00, 0x00, 0x00,
  0x02, 0x00, 0x00, 0x00, 0x04, 0x00, 0x00, 0x00, 0x06, 0x00, 0x00, 0x00,
  0x32, 0x2e, 0x32, 0x31, 0x2e, 0x30, 0x00, 0x00, 0xda, 0xf1, 0xff, 0xff,
  0x04, 0x00, 0x00, 0x00, 0x10, 0x00, 0x00, 0x00, 0x31, 0x2e, 0x36, 0x2e,
  0x30, 0x00, 0x00, 0x00, 0x00, 0x00, 0x00, 0x00, 0x00, 0x00, 0x00, 0x00,
  0x00, 0xe9, 0xff, 0xff, 0x04, 0xe9, 0xff, 0xff, 0x08, 0xe9, 0xff, 0xff,
  0x0c, 0xe9, 0xff, 0xff, 0x10, 0xe9, 0xff, 0xff, 0x14, 0xe9, 0xff, 0xff,
  0x18, 0xe9, 0xff, 0xff, 0x12, 0xf2, 0xff, 0xff, 0x04, 0x00, 0x00, 0x00,
  0x0c, 0x00, 0x00, 0x00, 0x5b, 0x0b, 0xfc, 0x41, 0x97, 0xd0, 0x8e, 0x42,
  0xb4, 0xd6, 0x7a, 0x44, 0x2a, 0xf2, 0xff, 0xff, 0x04, 0x00, 0x00, 0x00,
  0x0c, 0x00, 0x00, 0x00, 0x95, 0x30, 0xce, 0x3c, 0xe3, 0x63, 0xba, 0x3b,
  0x81, 0xfc, 0xb4, 0x3a, 0x42, 0xf2, 0xff, 0xff, 0x04, 0x00, 0x00, 0x00,
  0x80, 0x01, 0x00, 0x00, 0x88, 0x53, 0xa1, 0xc0, 0x3c, 0x74, 0x34, 0x3e,
  0x8f, 0x60, 0x4d, 0x3c, 0x43, 0xbb, 0x0e, 0xbe, 0xc6, 0xc8, 0xa8, 0xbb,
  0x3a, 0xe5, 0x88, 0x3c, 0x77, 0x19, 0x1f, 0xc0, 0x3c, 0xd1, 0x24, 0xbe,
  0x47, 0xf4, 0xb1, 0x3e, 0xc1, 0xd0, 0xa3, 0x3c, 0x9d, 0xfe, 0xaa, 0xbd,
  0x7b, 0xdd, 0xfa, 0x3e, 0xc9, 0x1f, 0xe9, 0xbf, 0xe5, 0xfd, 0x50, 0x3d,
  0xe6, 0x48, 0xc0, 0x3e, 0x35, 0x3c, 0x02, 0xc0, 0xca, 0x39, 0x05, 0xbf,
  0x9d, 0xef, 0xd7, 0x3e, 0x95, 0x22, 0xaa, 0x3d, 0x98, 0x2b, 0x80, 0x3d,
  0x11, 0x15, 0x7a, 0x3e, 0x1b, 0xfc, 0x36, 0xc0, 0xb6, 0x96, 0x53, 0xbd,
  0x5c, 0x0b, 0x60, 0x3d, 0x74, 0x5e, 0xff, 0xbf, 0xfe, 0x12, 0xcf, 0x3e,
  0xac, 0x27, 0xec, 0xbe, 0xc1, 0x3b, 0x10, 0x3e, 0x07, 0x52, 0x84, 0xbd,
  0xcc, 0xc1, 0x8d, 0xbe, 0xef, 0xf0, 0x08, 0xbf, 0x90, 0x2f, 0x23, 0xc0,
  0xaa, 0xb0, 0xc1, 0xbe, 0xca, 0xd0, 0x58, 0x3e, 0x6a, 0x6b, 0xa4, 0x3d,
  0x51, 0x7b, 0x8f, 0xbe, 0xc5, 0x6d, 0xf7, 0xbf, 0x77, 0x25, 0x92, 0x3e,
  0xfe, 0xc0, 0x1d, 0xbf, 0xc0, 0x61, 0x93, 0x3e, 0xb6, 0xc4, 0x71, 0xbb,
  0xc9, 0x89, 0xc7, 0x3e, 0x97, 0xd0, 0xe8, 0xbe, 0xe2, 0x72, 0x99, 0x3c,
  0x87, 0x86, 0xef, 0x3e, 0x3d, 0x34, 0xb4, 0x3c, 0x55, 0x15, 0x87, 0xbe,
  0xca, 0xf1, 0xbf, 0xbe, 0x47, 0xc6, 0x4e, 0x3e, 0xf6, 0x4b, 0xd2, 0xbe,
  0x95, 0x79, 0x50, 0x3c, 0x9e, 0x0c, 0x73, 0x3f, 0x6f, 0x90, 0x87, 0xbd,
  0x02, 0xf0, 0x52, 0x3e, 0xda, 0x35, 0x05, 0xc0, 0x1a, 0x69, 0x8e, 0x3e,
  0xda, 0xc0, 0x3e, 0x3e, 0x2c, 0xd6, 0x2a, 0xbe, 0xf8, 0xbc, 0x24, 0x3d,
  0x08, 0xc0, 0x8c, 0xbf, 0x0f, 0xc4, 0xd0, 0x3e, 0xf0, 0xed, 0xa2, 0x3d,
  0x9a, 0x97, 0x95, 0x3e, 0x82, 0x90, 0xf1, 0x3e, 0xe6, 0xd5, 0x14, 0x3e,
  0x46, 0xf7, 0x6b, 0x3e, 0xf8, 0xe3, 0xe9, 0x3e, 0x70, 0xf6, 0x89, 0xbe,
  0xb2, 0x15, 0x14, 0x3e, 0x95, 0x64, 0xe3, 0xbd, 0xee, 0xcc, 0x81, 0xbd,
  0x12, 0x19, 0x0e, 0x3e, 0x3b, 0x7e, 0xf8, 0xbf, 0x79, 0xaa, 0x7b, 0xbf,
  0xe8, 0xde, 0x15, 0xbf, 0x30, 0x3b, 0x6f, 0xbf, 0xb3, 0xa4, 0x93, 0xbd,
  0x43, 0x54, 0x2f, 0xbd, 0xcf, 0x4d, 0x1c, 0x3f, 0x53, 0x8d, 0x23, 0xbf,
  0x34, 0xab, 0x24, 0x3e, 0x1c, 0x82, 0x20, 0x3f, 0x2a, 0x59, 0x36, 0xbc,
  0x3a, 0x0a, 0xde, 0x3d, 0xa5, 0x97, 0xa7, 0x3d, 0x5a, 0xdd, 0x2b, 0x3d,
  0x6d, 0x3a, 0x06, 0x3f, 0x5a, 0x75, 0xe0, 0xbf, 0x58, 0x60, 0xae, 0x3c,
  0xc9, 0xa0, 0x49, 0xbf, 0x27, 0xec, 0x39, 0xbf, 0x05, 0xb9, 0x01, 0x3d,
  0x5c, 0x9c, 0x5e, 0xbe, 0x95, 0xa8, 0x41, 0x3d, 0x76, 0x5d, 0x62, 0xbb,
  0x40, 0x76, 0xe1, 0x3e, 0xce, 0xf3, 0xff, 0xff, 0x04, 0x00, 0x00, 0x00,
  0x00, 0x08, 0x00, 0x00, 0x91, 0x7a, 0x74, 0xbd, 0x38, 0xc4, 0x01, 0xbe,
  0xf0, 0x53, 0xcd, 0xbe, 0x39, 0x58, 0x95, 0xbe, 0x03, 0xab, 0x24, 0x3e,
  0xc1, 0xc6, 0x20, 0xbe, 0xe1, 0x17, 0x44, 0x3e, 0xa5, 0xd8, 0x54, 0xbe,
  0xca, 0xf7, 0x19, 0x3e, 0x49, 0x61, 0xcd, 0xbe, 0xbf, 0x69, 0xef, 0x3d,
  0xf4, 0xa5, 0x87, 0x3e, 0x89, 0xc2, 0x87, 0x3d, 0x1a, 0xaa, 0x1e, 0x3e,
  0x52, 0xdb, 0xdd, 0x3e, 0xbd, 0x33, 0x81, 0xbe, 0xbe, 0xbe, 0x16, 0x3e,
  0x38, 0xb1, 0x53, 0xbe, 0x4f, 0x4a, 0xa2, 0x3b, 0xf5, 0x92, 0xf0, 0xbe,
  0x9e, 0x30, 0x3f, 0x3e, 0x64, 0x5f, 0xe3, 0xbd, 0x7c, 0x4d, 0xc3, 0xbe,
  0xb4, 0x02, 0x24, 0xbe, 0x5b, 0x15, 0x90, 0xbe, 0x29, 0xd4, 0x5e, 0xbe,
  0x6e, 0x13, 0xc5, 0xbe, 0x06, 0x38, 0x02, 0xbe, 0x09, 0x21, 0x94, 0x3e,
  0xbe, 0x12, 0xd8, 0xbe, 0xb9, 0x94, 0xf5, 0xbe, 0x29, 0x0d, 0xef, 0xbc,
  0xcb, 0xc4, 0x29, 0x3b, 0x34, 0xc2, 0x87, 0x3d, 0x74, 0xe4, 0xae, 0xbe,
  0x34, 0xa3, 0xd8, 0xbd, 0xe1, 0x18, 0x2f, 0x3e, 0x1d, 0xcf, 0xd2, 0xbe,
  0x30, 0x30, 0x81, 0x3e, 0xd3, 0xda, 0xb3, 0x3d, 0x9f, 0xc7, 0xb6, 0xbe,
  0x4d, 0x96, 0x41, 0x3e, 0xd2, 0x08, 0x90, 0x3e, 0x81, 0x22, 0x3b, 0xbe,
  0x4b, 0x80, 0x90, 0xbe, 0x56, 0x90, 0xad, 0xbe, 0x23, 0x10, 0xb4, 0xbe,
  0x03, 0x1b, 0xc6, 0xbe, 0x31, 0xe2, 0x13, 0xbd, 0x77, 0x8c, 0x1b, 0x3e,
  0xd0, 0xc3, 0xca, 0x3c, 0xc6, 0xd7, 0xb3, 0xbe, 0x7a, 0x33, 0x83, 0x3e,
  0xbe, 0x98, 0x96, 0xbe, 0x0d, 0x7c, 0x42, 0x3e, 0x8a, 0x27, 0x39, 0xbd,
  0x70, 0xc4, 0xdd, 0x3c, 0xf7, 0x29, 0x5b, 0x3e, 0x76, 0x7a, 0x8d, 0xbe,
  0x1f, 0x49, 0x98, 0xbe, 0x74, 0x1a, 0x03, 0xbe, 0xaf, 0xa5, 0xc0, 0xbe,
  0x9d, 0x42, 0xf1, 0x3d, 0x7c, 0xf4, 0x59, 0x3d, 0x7d, 0x5c, 0x12, 0x3f,
  0x0d, 0xcc, 0x45, 0x3e, 0xac, 0xb3, 0xe7, 0x3d, 0xb1, 0x49, 0xbb, 0xbe,
  0x00, 0x7e, 0xa2, 0x3e, 0x75, 0x6c, 0xff, 0x3e, 0x37, 0x18, 0x95, 0x3e,
  0x97, 0x0e, 0xac, 0x3e, 0xac, 0x8d, 0xba, 0x3e, 0xa6, 0xfd, 0x5f, 0xbf,
  0xdf, 0xc5, 0x02, 0x3f, 0x69, 0x2f, 0x53, 0x3c, 0x0a, 0x3f, 0x30, 0x3c,
  0x6b, 0x44, 0x4c, 0xbe, 0x31, 0x8b, 0x07, 0x3e, 0x18, 0xf0, 0xdc, 0x3e,
  0xdb, 0x8e, 0x67, 0xbe, 0x35, 0xcb, 0x42, 0xbf, 0xb4, 0x1e, 0x01, 0x3e,
  0x4e, 0x24, 0x70, 0xbf, 0x83, 0x3d, 0x79, 0xbe, 0x82, 0x35, 0xae, 0xbd,
  0x20, 0xdc, 0x88, 0xbe, 0x9e, 0x19, 0x5b, 0x3d, 0xe7, 0x08, 0x5e, 0xbe,
  0xc4, 0xcc, 0x6b, 0x3e, 0xf1, 0x33, 0x46, 0xbf, 0x81, 0x36, 0x21, 0xbf,
  0xe1, 0xba, 0xa5, 0x3e, 0x6f, 0xce, 0x17, 0xbf, 0x77, 0xd4, 0x6b, 0x3e,
  0x85, 0x63, 0x56, 0x3e, 0x50, 0x31, 0x0c, 0xc0, 0x96, 0x77, 0x64, 0x3e,
  0x0a, 0x51, 0x1a, 0x3b, 0x13, 0x0c, 0x08, 0x3f, 0xc0, 0x97, 0xb5, 0xbe,
  0xba, 0xb5, 0xf8, 0xbd, 0x03, 0x09, 0x9f, 0xbc, 0x11, 0x9c, 0x1e, 0xbf,
  0x54, 0xb9, 0x9d, 0xbe, 0x90, 0xd9, 0x4c, 0xbe, 0xda, 0xf7, 0x04, 0x3f,
  0x6f, 0xf7, 0x6e, 0xbe, 0x57, 0x8e, 0x12, 0x3f, 0xad, 0x9e, 0x11, 0xbe,
  0x38, 0x0f, 0xe9, 0x3c, 0x59, 0xb9, 0xef, 0xbe, 0xbd, 0x84, 0xe2, 0x3d,
  0x38, 0x96, 0x4d, 0x3e, 0xe3, 0xa8, 0x88, 0xbe, 0xbd, 0x07, 0x97, 0x3f,
  0x25, 0x75, 0x78, 0x3e, 0x57, 0x9b, 0x3d, 0x3e, 0xa0, 0x8d, 0x87, 0x3e,
  0x45, 0x2e, 0xcc, 0x3d, 0x41, 0xe5, 0xf4, 0x3e, 0x71, 0x57, 0xfe, 0xbd,
  0x43, 0x18, 0x99, 0x3e, 0x9c, 0x93, 0x89, 0x3d, 0xad, 0x20, 0x91, 0x3e,
  0x05, 0xfc, 0x8a, 0x3f, 0x70, 0xab, 0xa5, 0x3e, 0xf0, 0xf8, 0x67, 0x3e,
  0x4d, 0x20, 0xc6, 0xbd, 0x79, 0x80, 0xa5, 0x3e, 0x70, 0x12, 0x3d, 0x3e,
  0xe9, 0x8a, 0xe0, 0xbc, 0x8d, 0x64, 0xac, 0x3c, 0xf0, 0xf6, 0xb6, 0xbe,
  0x24, 0x01, 0x98, 0xbe, 0xe8, 0xed, 0xc5, 0x3c, 0x4e, 0xce, 0x88, 0x3e,
  0x3e, 0x46, 0x51, 0xbe, 0xca, 0xc5, 0xa6, 0xbe, 0x10, 0x14, 0x35, 0xbe,
  0x54, 0x18, 0xf7, 0xba, 0x1a, 0x64, 0xae, 0xbe, 0xfe, 0x7c, 0x8e, 0x3d,
  0xc6, 0xcf, 0x3d, 0x3e, 0xa6, 0x32, 0x6c, 0x3e, 0x03, 0x21, 0x9e, 0xbe,
  0x5d, 0x2c, 0x99, 0xbe, 0xab, 0xf0, 0xaf, 0xbe, 0x1a, 0x8c, 0x67, 0x3e,
  0x52, 0xe0, 0x5d, 0x3e, 0x69, 0x9c, 0x8e, 0x3e, 0xf5, 0xb8, 0x85, 0xbd,
  0x7b, 0x4b, 0x29, 0xbe, 0x2a, 0x8b, 0x93, 0x3b, 0xf3, 0x53, 0x84, 0x3e,
  0x02, 0x47, 0x85, 0xbe, 0x68, 0x07, 0x76, 0xbe, 0xd9, 0xc4, 0x29, 0xbe,
  0x3d, 0xce, 0xfd, 0xbd, 0x20, 0xcf, 0x82, 0xbe, 0x8e, 0x9f, 0xcd, 0x3d,
  0x97, 0xd7, 0x7f, 0x3e, 0x1b, 0xc3, 0x54, 0xbf, 0x93, 0x3d, 0xe0, 0xbe,
  0x30, 0xc4, 0xdd, 0xbe, 0xdf, 0x12, 0xa4, 0x3e, 0x1c, 0x02, 0xac, 0xbd,
  0xac, 0x58, 0xb0, 0x3e, 0x4c, 0x0c, 0x70, 0x3e, 0x55, 0x61, 0x70, 0x3d,
  0xdd, 0x5c, 0x83, 0x3e, 0xbd, 0x9d, 0x33, 0x3e, 0xc3, 0x92, 0xc7, 0xbd,
  0x53, 0xb3, 0xbc, 0xbe, 0x2b, 0xf2, 0x10, 0xbd, 0xe0, 0xdb, 0x6b, 0x3e,
  0xc5, 0x8d, 0xaf, 0x3e, 0xa8, 0xda, 0x41, 0x3d, 0x9a, 0xd3, 0x4d, 0xbf,
  0xe3, 0xf0, 0xee, 0xbe, 0x3a, 0xd4, 0x9e, 0xbc, 0x6a, 0x39, 0xe8, 0x3d,
  0x8e, 0x95, 0x62, 0xbe, 0xe6, 0x75, 0x8b, 0x3e, 0x44, 0x81, 0xea, 0x3d,
  0x17, 0xfe, 0x0b, 0x3e, 0xa5, 0x98, 0x6e, 0x3e, 0xef, 0x25, 0x33, 0xbd,
  0xf2, 0x04, 0x9f, 0xbe, 0xaa, 0xd8, 0x76, 0x3d, 0x4d, 0x25, 0x73, 0x3e,
  0x10, 0x12, 0xfe, 0xbe, 0xa2, 0x90, 0x04, 0x3f, 0x03, 0x7c, 0x73, 0xbe,
  0x58, 0x4b, 0x83, 0x3d, 0xa4, 0x38, 0xc6, 0x3c, 0x4f, 0xe6, 0xde, 0x3e,
  0x24, 0x0f, 0xd4, 0x3c, 0xfb, 0x8a, 0xfb, 0x3d, 0x09, 0xa7, 0x06, 0x3f,
  0xb6, 0x6a, 0x13, 0x3e, 0x4e, 0x59, 0x4d, 0x3d, 0xb8, 0x8a, 0x93, 0xbe,
  0x1c, 0x36, 0x42, 0xbe, 0x99, 0x9c, 0xbe, 0xbe, 0xda, 0x3a, 0xc5, 0xbe,
  0xae, 0x93, 0x3b, 0xbe, 0xab, 0x74, 0x08, 0x3c, 0xda, 0xb1, 0x91, 0xbe,
  0x84, 0xa7, 0x4c, 0xbf, 0x8c, 0xff, 0x0b, 0x3f, 0xdf, 0x8b, 0x89, 0xbf,
  0x01, 0x0f, 0x84, 0x3e, 0xa0, 0x9a, 0x86, 0x3d, 0x29, 0xce, 0x71, 0xbf,
  0x34, 0x79, 0x0f, 0xbd, 0x3f, 0x10, 0x5c, 0xbf, 0x3e, 0xc3, 0x99, 0x3e,
  0x3e, 0x72, 0x9a, 0xbf, 0xf0, 0x81, 0xb5, 0xbe, 0x25, 0xdf, 0x26, 0x3e,
  0x59, 0x3d, 0xe9, 0xbe, 0xe5, 0x48, 0x88, 0x3e, 0x7c, 0xbd, 0xb9, 0x3d,
  0xd3, 0x53, 0xb1, 0xbe, 0x48, 0x89, 0xa1, 0xbe, 0xb8, 0xd9, 0xed, 0xbd,
  0x39, 0x90, 0x9f, 0x3e, 0xe8, 0xd2, 0x7c, 0x3d, 0xf6, 0xf1, 0x94, 0xbe,
  0xc0, 0xb7, 0xa8, 0xbe, 0x4a, 0xe2, 0x85, 0xbe, 0x94, 0x17, 0xa8, 0xbe,
  0x9c, 0x40, 0xa1, 0xbe, 0xb0, 0x9f, 0x72, 0x3d, 0x22, 0x68, 0x8b, 0x3c,
  0x26, 0xbb, 0x42, 0x3e, 0x44, 0x51, 0x85, 0x3d, 0xa0, 0x99, 0xef, 0xbc,
  0x4a, 0x7e, 0x04, 0x3e, 0xf4, 0xa6, 0x94, 0xbe, 0xb3, 0xaf, 0x1e, 0xbe,
  0x40, 0x97, 0xb8, 0xbb, 0x5e, 0xad, 0xd2, 0xbd, 0x22, 0x27, 0x03, 0x3e,
  0x98, 0x47, 0x1c, 0xbe, 0xb0, 0xfa, 0x70, 0xbe, 0xd5, 0x4a, 0xfa, 0xbc,
  0x94, 0x18, 0x00, 0x3e, 0x6a, 0x01, 0x01, 0x3e, 0xfd, 0x81, 0xa9, 0xbe,
  0x26, 0x76, 0xb7, 0xbe, 0x80, 0x8e, 0x7b, 0xbd, 0x1c, 0x57, 0xef, 0xbd,
  0x07, 0xd8, 0xce, 0x3c, 0xd7, 0xd3, 0xa7, 0xbe, 0xd9, 0x36, 0x4d, 0xbf,
  0x63, 0x7b, 0x54, 0x3e, 0xb2, 0xa6, 0xf5, 0xbe, 0xc4, 0x27, 0x94, 0xbd,
  0xa4, 0x10, 0x55, 0xbd, 0x76, 0x99, 0x13, 0xbf, 0x19, 0x79, 0x6c, 0x3d,
  0x7c, 0xcf, 0x29, 0xbf, 0x3e, 0xf1, 0x9a, 0x3e, 0xdf, 0x2f, 0x7a, 0x3d,
  0x3b, 0x00, 0x1b, 0xbe, 0x1a, 0xc3, 0x04, 0xbf, 0xff, 0xaf, 0xb5, 0xbf,
  0xf7, 0x4d, 0xd6, 0x3e, 0xae, 0x85, 0xcf, 0x3d, 0x7c, 0xf0, 0x35, 0x3f,
  0x07, 0x58, 0x0b, 0x3e, 0x8d, 0xbd, 0x8d, 0x3e, 0xec, 0xc0, 0xa4, 0xbe,
  0xfc, 0xc2, 0x5d, 0x3e, 0xab, 0xed, 0xef, 0xbd, 0x95, 0xa1, 0x84, 0xbe,
  0x14, 0xe2, 0x9d, 0x3e, 0x58, 0x0a, 0x8f, 0x3e, 0xe9, 0x45, 0xab, 0xbf,
  0x96, 0x3f, 0xa1, 0x3e, 0x25, 0xc8, 0xfe, 0x3e, 0x88, 0x45, 0x44, 0x3e,
  0x60, 0x0f, 0x8a, 0x3e, 0x0d, 0xf4, 0x08, 0x3e, 0x92, 0xdc, 0x11, 0x3d,
  0x35, 0x83, 0x39, 0xbd, 0x82, 0x76, 0x6f, 0xbe, 0x05, 0x79, 0x85, 0xbd,
  0xed, 0xe6, 0xe6, 0xbd, 0x80, 0xf5, 0xdf, 0xbe, 0x97, 0x91, 0x80, 0xbe,
  0x88, 0x59, 0x26, 0x3e, 0x01, 0xb4, 0xf1, 0xbe, 0x96, 0x0c, 0x92, 0xbd,
  0x1c, 0xd2, 0x1a, 0x3f, 0x3e, 0xba, 0xc4, 0x3d, 0xc0, 0xf6, 0x9e, 0x3f,
  0xf6, 0x3a, 0x1a, 0x3f, 0xea, 0x22, 0xb5, 0xbf, 0xc7, 0x16, 0x78, 0x3e,
  0x6f, 0xec, 0x22, 0x3f, 0x1d, 0xaa, 0xd7, 0x3e, 0x67, 0xd1, 0xf2, 0x3e,
  0x99, 0x2b, 0x58, 0x3e, 0xa1, 0x7e, 0x34, 0x3f, 0x51, 0x14, 0x80, 0xbf,
  0x64, 0x71, 0x35, 0xbe, 0x9f, 0x89, 0x8c, 0xbe, 0x7b, 0x2b, 0x8b, 0x3e,
  0x8c, 0xe9, 0x13, 0x3f, 0x51, 0x1b, 0x32, 0xc0, 0xd2, 0xc1, 0xca, 0x3f,
  0x44, 0xbb, 0x99, 0x3e, 0xc7, 0x0b, 0xb4, 0xbd, 0x39, 0x3d, 0x65, 0xbd,
  0x80, 0x3a, 0x97, 0xbf, 0xe5, 0xff, 0xc4, 0x3e, 0xbc, 0xde, 0x1d, 0xbe,
  0xa1, 0x13, 0xba, 0xbc, 0x65, 0xeb, 0xa2, 0xbe, 0x44, 0x42, 0xb4, 0xbe,
  0x1d, 0x19, 0x4d, 0xbf, 0xb0, 0x72, 0x51, 0xbf, 0xe2, 0xa2, 0xea, 0xbe,
  0x67, 0x5e, 0xd1, 0xbd, 0x95, 0x1b, 0x1d, 0xbe, 0xe2, 0x37, 0xbb, 0x3e,
  0x82, 0xb9, 0x87, 0x3e, 0xc7, 0x56, 0x09, 0x3f, 0x38, 0x27, 0x20, 0xbf,
  0xbc, 0xf9, 0xf8, 0x3d, 0x8f, 0x09, 0x05, 0xbf, 0x3a, 0x29, 0x25, 0xbf,
  0x88, 0x94, 0x31, 0x3f, 0x13, 0xc6, 0xc7, 0xbd, 0xd3, 0x74, 0xc0, 0xbe,
  0x42, 0x46, 0xd7, 0xbe, 0xb9, 0x35, 0x83, 0x3f, 0x56, 0xe0, 0xb2, 0xbe,
  0x1a, 0x59, 0x52, 0xbd, 0x48, 0x21, 0x48, 0xbe, 0x1b, 0xb7, 0xbe, 0xbe,
  0x2b, 0x0d, 0x34, 0x3f, 0x66, 0x6c, 0x53, 0xbe, 0x72, 0x4d, 0x14, 0xbe,
  0x60, 0x0e, 0x0b, 0xbf, 0x62, 0x0b, 0x59, 0xbf, 0xbf, 0x52, 0x18, 0x3f,
  0xd9, 0x44, 0xf8, 0x3e, 0x33, 0x67, 0x55, 0xbf, 0x02, 0x09, 0x5b, 0x3e,
  0xec, 0xb5, 0xbb, 0x3d, 0xf7, 0xe9, 0x91, 0xbe, 0x08, 0x49, 0x92, 0xbf,
  0x01, 0x0f, 0xe8, 0xbe, 0x2a, 0x79, 0x26, 0xbd, 0x2f, 0xe2, 0x9e, 0x3d,
  0x3f, 0xa1, 0x14, 0x3d, 0xc9, 0xbd, 0xa5, 0x3e, 0x19, 0xcc, 0x89, 0xbe,
  0x83, 0x5a, 0xab, 0x3e, 0x63, 0xfc, 0xc9, 0xbd, 0xda, 0x5e, 0x03, 0x3f,
  0x03, 0x22, 0x6a, 0xbf, 0x8b, 0x2e, 0x3d, 0xbf, 0xe2, 0xb3, 0x50, 0x3e,
  0x42, 0xff, 0x84, 0xbe, 0xad, 0x00, 0xfe, 0xbf, 0x89, 0x86, 0x18, 0xbe,
  0x28, 0x0c, 0xd4, 0x3d, 0x42, 0xb1, 0x14, 0xbe, 0x07, 0x8d, 0x54, 0x3e,
  0x4f, 0xe0, 0x7c, 0xbf, 0x48, 0x9c, 0x25, 0x3e, 0x1a, 0xe8, 0x2e, 0x3f,
  0xc4, 0x51, 0x7c, 0x3c, 0xa9, 0x43, 0x02, 0xbf, 0x68, 0xc4, 0xf8, 0xbe,
  0xdb, 0x4b, 0x24, 0xbf, 0x98, 0x77, 0x2d, 0x3e, 0x27, 0xfd, 0xdc, 0x3e,
  0xaa, 0x96, 0x8d, 0xbf, 0x14, 0xde, 0x83, 0xbf, 0xe8, 0x08, 0xaf, 0x3e,
  0xde, 0x0a, 0x4f, 0xbe, 0xc8, 0x8f, 0xdb, 0x3d, 0x65, 0x62, 0x1a, 0xbe,
  0xaf, 0x15, 0x99, 0xbe, 0x36, 0x3a, 0x8b, 0x3e, 0xda, 0xec, 0x1d, 0xbf,
  0xf3, 0x84, 0x3b, 0xbe, 0xd9, 0x7a, 0x24, 0x3e, 0x7d, 0x0a, 0xaa, 0xbe,
  0xaf, 0xc1, 0xa1, 0xbe, 0x5e, 0x98, 0x02, 0xbe, 0x7e, 0x88, 0x0c, 0xbe,
  0x2d, 0x5d, 0x91, 0xbe, 0x3c, 0x57, 0x82, 0x3e, 0x87, 0x76, 0xa6, 0x3e,
  0xac, 0x72, 0xaf, 0x3e, 0x2e, 0xdf, 0x2a, 0xbe, 0x3d, 0xfc, 0xdb, 0x3e,
  0x01, 0x74, 0x83, 0xbc, 0xb4, 0x0a, 0xc0, 0x3e, 0x3c, 0x6c, 0xba, 0x3e,
  0x8a, 0x52, 0x17, 0x3f, 0x26, 0x90, 0x12, 0xc0, 0xf3, 0x4c, 0xc9, 0xbb,
  0x42, 0x0c, 0xcc, 0xbc, 0x37, 0x93, 0xcd, 0x3e, 0x19, 0xdd, 0xac, 0x3e,
  0xbf, 0x0c, 0x88, 0xbf, 0xde, 0x5f, 0x22, 0xbf, 0x31, 0x3b, 0x83, 0x3d,
  0x7e, 0xfd, 0x00, 0xc0, 0x17, 0x1e, 0xde, 0x3d, 0x5a, 0x56, 0xe0, 0xbe,
  0x0c, 0x98, 0x85, 0x3e, 0xa8, 0x57, 0xa3, 0xbe, 0xd9, 0x93, 0x54, 0xbe,
  0x97, 0x7a, 0x1b, 0xbe, 0xff, 0x8d, 0x8f, 0xbf, 0x82, 0x5a, 0x09, 0xbf,
  0xeb, 0x1e, 0xce, 0xbc, 0x92, 0x36, 0x02, 0x3e, 0xc2, 0xfe, 0x18, 0x3e,
  0x2c, 0xbf, 0x04, 0xc0, 0x88, 0xb0, 0xa1, 0x3e, 0x5d, 0x77, 0xbb, 0xbd,
  0xa9, 0x06, 0x99, 0x3e, 0x27, 0xd4, 0xbb, 0x3e, 0xc2, 0x55, 0xea, 0xbb,
  0xdd, 0x40, 0xb9, 0xbe, 0x1d, 0xb1, 0x39, 0x3f, 0x2d, 0xc6, 0x0a, 0xbd,
  0xb3, 0x5a, 0x41, 0xbe, 0x54, 0xd8, 0xaf, 0x3d, 0x58, 0x13, 0xc6, 0x3e,
  0x34, 0xf3, 0x01, 0xc0, 0x34, 0x62, 0xe2, 0x3d, 0xd1, 0x8e, 0x76, 0xbe,
  0x4a, 0x81, 0x2c, 0x3e, 0x77, 0xbc, 0x3b, 0x3e, 0xbf, 0x59, 0x9e, 0xbe,
  0xf9, 0xaf, 0x08, 0xbd, 0xea, 0x92, 0xa0, 0x3e, 0x4c, 0xbe, 0xca, 0xbe,
  0x41, 0xdc, 0x2d, 0xbe, 0xb8, 0x9e, 0x0c, 0x3f, 0x40, 0x42, 0x9f, 0x3d,
  0xd2, 0xf6, 0x10, 0xbd, 0x87, 0xc4, 0x92, 0x3e, 0xb7, 0x26, 0x22, 0x3e,
  0x8a, 0x22, 0xaa, 0x3e, 0xaf, 0x87, 0xb1, 0xbd, 0xcf, 0xa5, 0xae, 0x3e,
  0xa4, 0xb3, 0x9c, 0x3b, 0x9c, 0x3b, 0x9b, 0xbe, 0xdd, 0x41, 0x8d, 0xbf,
  0x7c, 0xb7, 0xa2, 0x3e, 0x24, 0x40, 0xf5, 0x3e, 0xfa, 0x43, 0xc6, 0x3d,
  0xad, 0x6c, 0x6c, 0x3e, 0xb4, 0x8b, 0x6a, 0xbe, 0x43, 0xc2, 0x97, 0x3e,
  0x05, 0x59, 0x4a, 0xbf, 0x2b, 0xc0, 0x84, 0xbe, 0xf9, 0xbd, 0xf0, 0xbe,
  0x15, 0x8b, 0x2f, 0xbe, 0x75, 0x96, 0x5f, 0x3e, 0x78, 0xfe, 0xe4, 0xbf,
  0xe9, 0x6d, 0xdc, 0x3e, 0x95, 0x0d, 0xa7, 0xbe, 0x47, 0x98, 0xb0, 0xbe,
  0x49, 0x93, 0xc1, 0x3e, 0x60, 0xc2, 0xa7, 0xbf, 0x02, 0x4a, 0x11, 0x3e,
  0xfb, 0x01, 0xd3, 0xbd, 0x3c, 0xa7, 0xcd, 0x3d, 0x36, 0x47, 0x35, 0x3e,
  0x97, 0x4b, 0x53, 0xbe, 0x11, 0x84, 0x89, 0xbe, 0x35, 0x58, 0x94, 0xbe,
  0x9e, 0x87, 0x7a, 0x3e, 0x35, 0xbf, 0xaf, 0xbe, 0x6d, 0x13, 0x17, 0xbe,
  0x6c, 0x9b, 0xaf, 0xbd, 0x16, 0x1a, 0x1d, 0xbe, 0x50, 0x75, 0x83, 0xbe,
  0x19, 0x45, 0x88, 0x3e, 0xe8, 0xc8, 0x6c, 0xbd, 0x23, 0x6b, 0x6d, 0xbe,
  0xea, 0xb0, 0x8e, 0xbe, 0xd0, 0xd2, 0xb4, 0xbe, 0xa2, 0x12, 0x74, 0x3c,
  0xf2, 0xa4, 0x98, 0xbe, 0xc0, 0x21, 0xd6, 0x3c, 0xd0, 0xab, 0x60, 0xbd,
  0xdc, 0x16, 0x5b, 0xbe, 0xdf, 0x2e, 0xb0, 0x3c, 0xe6, 0xb5, 0x03, 0xbd,
  0x0d, 0xaa, 0xa1, 0xbe, 0xc0, 0x8c, 0xa5, 0x3d, 0xc1, 0xcb, 0x14, 0xbe,
  0xf3, 0x26, 0x24, 0x3e, 0x2b, 0xd7, 0xa1, 0x3e, 0x03, 0x26, 0x22, 0x3e,
  0x02, 0xbc, 0x51, 0xbe, 0x7d, 0xd5, 0x81, 0x3e, 0x4a, 0x0e, 0x25, 0xbe,
  0xda, 0xfb, 0xff, 0xff, 0x04, 0x00, 0x00, 0x00, 0x00, 0x02, 0x00, 0x00,
  0x37, 0x13, 0x63, 0xbe, 0x07, 0x10, 0xda, 0xbd, 0x30, 0x35, 0xbb, 0xbe,
  0x56, 0x19, 0xbe, 0x3e, 0xbc, 0x60, 0x93, 0xbe, 0x50, 0x7d, 0x22, 0xbe,
  0x13, 0x3d, 0x3c, 0x3f, 0x48, 0x1d, 0xf1, 0x3e, 0x05, 0x3a, 0xbc, 0x3e,
  0x46, 0xbc, 0x0c, 0x3f, 0x25, 0x71, 0x1d, 0x3f, 0x4d, 0xa8, 0x4f, 0xc0,
  0xec, 0x26, 0x96, 0xbe, 0x3c, 0x9f, 0xba, 0x3e, 0xb2, 0x43, 0xb1, 0x3e,
  0x9a, 0x1a, 0x93, 0x3e, 0x99, 0x83, 0x17, 0xbf, 0x78, 0x49, 0x69, 0x3e,
  0xb1, 0x3a, 0x6c, 0xbd, 0xf1, 0x72, 0xa6, 0xbf, 0xec, 0x56, 0xe1, 0xbe,
  0xaf, 0x9a, 0x81, 0xbe, 0x22, 0x38, 0x23, 0xbf, 0x60, 0xe4, 0x5d, 0x3d,
  0xf8, 0xa2, 0xb2, 0x3e, 0xdd, 0xe5, 0x29, 0x3e, 0x01, 0xf1, 0xf2, 0x3c,
  0x88, 0x15, 0x2e, 0x3f, 0xfd, 0xce, 0x9b, 0x3e, 0x7a, 0x82, 0xd9, 0xbe,
  0x1d, 0x23, 0x27, 0xbe, 0xb0, 0xef, 0xd3, 0xbd, 0x62, 0xbf, 0xbe, 0xbe,
  0xf7, 0x0f, 0x1f, 0xbe, 0x54, 0x37, 0x7d, 0x3d, 0xbe, 0x7e, 0x9a, 0x3d,
  0x4f, 0x0d, 0x89, 0x3e, 0xd7, 0x74, 0xa8, 0x3e, 0x15, 0xb6, 0x5e, 0xbf,
  0x08, 0x4d, 0x87, 0x3a, 0xac, 0xdd, 0x09, 0x3f, 0x6e, 0x60, 0xab, 0x3c,
  0x7d, 0x39, 0xea, 0xbe, 0x05, 0x78, 0x81, 0x3e, 0x51, 0x68, 0x8b, 0x3e,
  0x41, 0xaf, 0x0c, 0xbf, 0x2a, 0x1d, 0xc8, 0xbf, 0x70, 0x0b, 0xb7, 0xbe,
  0x24, 0x5f, 0x96, 0xbe, 0x32, 0x5a, 0xf6, 0x3d, 0x39, 0xb8, 0xa0, 0xbd,
  0xdf, 0x80, 0x51, 0xbf, 0xc3, 0xcd, 0xcc, 0x3e, 0xf2, 0x5f, 0x2c, 0x3e,
  0x94, 0x5e, 0x3b, 0xbf, 0xd3, 0x33, 0x88, 0x3d, 0x5e, 0x37, 0xac, 0x3e,
  0x95, 0x54, 0x51, 0x3f, 0x42, 0xda, 0x2a, 0xbe, 0xf7, 0x30, 0xcf, 0x3d,
  0x23, 0xa8, 0xd8, 0x3c, 0xf8, 0xbf, 0xba, 0x3e, 0xcd, 0xbd, 0xc8, 0xbe,
  0x23, 0xc8, 0x1d, 0xbe, 0x74, 0x2f, 0xd5, 0xbd, 0xc3, 0x9a, 0xae, 0xbe,
  0x46, 0xfa, 0x32, 0x3f, 0xc5, 0xd8, 0x10, 0xc0, 0x18, 0x19, 0x61, 0x3e,
  0x6e, 0xf0, 0x78, 0x3f, 0xfc, 0xb9, 0x51, 0xbd, 0x5a, 0x6f, 0xb5, 0xbc,
  0xed, 0xca, 0xb7, 0x3e, 0x42, 0xa8, 0x88, 0x3e, 0xb4, 0x35, 0x2e, 0x3e,
  0x2e, 0x4d, 0x74, 0x3e, 0x59, 0x6f, 0x01, 0x3f, 0x1e, 0xd9, 0x09, 0xbf,
  0x26, 0xd3, 0x80, 0xbf, 0xec, 0x9d, 0xe3, 0x3e, 0x1f, 0xa4, 0xda, 0x3e,
  0xe6, 0x95, 0x60, 0xbe, 0xad, 0xa2, 0xe0, 0x3e, 0xb6, 0x4e, 0x21, 0xbf,
  0x17, 0x28, 0x9a, 0x3c, 0x9e, 0x08, 0x12, 0x3f, 0x77, 0x29, 0x93, 0x3e,
  0x00, 0xfd, 0xd5, 0x3e, 0x68, 0x9f, 0x9c, 0xbf, 0xc6, 0x1b, 0xcf, 0x3e,
  0x47, 0xc6, 0xc4, 0xbf, 0xdf, 0xa7, 0x89, 0xbf, 0x78, 0xc0, 0x5b, 0xbf,
  0x4c, 0x08, 0xb7, 0xbf, 0xd9, 0x1e, 0x32, 0x3f, 0x20, 0x4f, 0x44, 0x3d,
  0x7c, 0x38, 0x44, 0xbd, 0x2d, 0x4f, 0xc8, 0x3e, 0x40, 0xc2, 0xd7, 0x3e,
  0xbd, 0x91, 0x52, 0x3e, 0xcf, 0x3e, 0xa5, 0xbe, 0x4f, 0x4f, 0x8f, 0xbe,
  0x69, 0x50, 0x6f, 0x3f, 0x77, 0x85, 0x99, 0xbe, 0xb2, 0xee, 0x91, 0x3d,
  0x8a, 0x75, 0x9f, 0x3e, 0x41, 0xae, 0x9e, 0xbe, 0x65, 0xd8, 0xfc, 0xbe,
  0xd2, 0xd6, 0x4f, 0xbf, 0xbc, 0x47, 0x84, 0x3f, 0x54, 0x55, 0x73, 0x3e,
  0xd0, 0x12, 0x96, 0xbe, 0xa8, 0x2b, 0xb4, 0x3d, 0x33, 0xa6, 0x31, 0xbe,
  0xb8, 0x98, 0xe5, 0x3b, 0x44, 0x42, 0xa4, 0xbf, 0xa7, 0x6e, 0x7d, 0x3d,
  0x59, 0x53, 0x06, 0x3f, 0x2f, 0x24, 0x55, 0xbe, 0xf9, 0xb1, 0x2e, 0x3e,
  0x1e, 0x76, 0x73, 0xbf, 0xe6, 0xcc, 0x4d, 0x3e, 0x77, 0x4c, 0xf0, 0x3e,
  0xd3, 0x26, 0xd8, 0x3e, 0x89, 0x91, 0x3e, 0xbd, 0x69, 0x03, 0x78, 0xbf,
  0x62, 0xee, 0x1e, 0x3f, 0x94, 0xd4, 0xad, 0xbe, 0xe6, 0xfd, 0xff, 0xff,
  0x04, 0x00, 0x00, 0x00, 0x60, 0x00, 0x00, 0x00, 0x00, 0x3d, 0x53, 0xbf,
  0xc6, 0x59, 0x72, 0x3f, 0x20, 0xb7, 0x5b, 0x3f, 0xb2, 0x9a, 0xe9, 0x3d,
  0x9e, 0x75, 0xb5, 0x3f, 0xef, 0xdf, 0x32, 0xbf, 0x94, 0xf4, 0x00, 0xbf,
  0x12, 0xe6, 0x05, 0x3f, 0x03, 0x35, 0xd6, 0x3d, 0xc4, 0x0f, 0xa3, 0x3d,
  0x8f, 0x32, 0x3b, 0x3f, 0xd1, 0x43, 0xb2, 0xbf, 0xec, 0xac, 0x61, 0xbe,
  0xd8, 0xed, 0xbb, 0x3f, 0xf7, 0x68, 0x8b, 0x3e, 0x00, 0x03, 0x88, 0x3f,
  0x0c, 0x80, 0x6b, 0x3f, 0x3e, 0xc2, 0xc7, 0xbe, 0x49, 0x25, 0x8c, 0xbe,
  0xc9, 0x60, 0xf9, 0xbe, 0x97, 0x0b, 0x95, 0x3e, 0x1e, 0x57, 0x8b, 0xbf,
  0xbc, 0x94, 0x92, 0x3f, 0x06, 0x6f, 0xab, 0xbf, 0x52, 0xfe, 0xff, 0xff,
  0x04, 0x00, 0x00, 0x00, 0x0c, 0x00, 0x00, 0x00, 0xaa, 0x6d, 0x97, 0x3e,
  0xb6, 0x3e, 0x1c, 0xbf, 0x00, 0x05, 0x5b, 0x3e, 0x6a, 0xfe, 0xff, 0xff,
  0x04, 0x00, 0x00, 0x00, 0x80, 0x00, 0x00, 0x00, 0xa7, 0xc2, 0x3d, 0x3e,
  0xd0, 0x64, 0xfe, 0xbd, 0xc0, 0x30, 0x14, 0x3e, 0xed, 0x2b, 0xa4, 0x3e,
  0x2d, 0x37, 0x54, 0x3e, 0x6d, 0x29, 0x5a, 0x3e, 0x34, 0xbe, 0xef, 0x3d,
  0x5a, 0x0e, 0xf8, 0x3d, 0x22, 0x9a, 0x3c, 0x3e, 0x18, 0xde, 0xc9, 0x3d,
  0x50, 0x89, 0x97, 0x3e, 0x00, 0x35, 0x87, 0xbf, 0x1a, 0x32, 0x8c, 0xbe,
  0xa4, 0x85, 0x88, 0x3e, 0x69, 0x5c, 0xb9, 0x3e, 0x6a, 0x35, 0x06, 0x3f,
  0xd8, 0x84, 0xa3, 0x3e, 0x3a, 0x6f, 0x14, 0x3e, 0x2c, 0x31, 0x08, 0x3e,
  0x08, 0x58, 0xa8, 0xbe, 0xbd, 0x55, 0x47, 0xbe, 0x78, 0xd4, 0x7d, 0x3d,
  0x83, 0x2a, 0xb7, 0x3d, 0x6d, 0xea, 0xd5, 0x3e, 0x38, 0x39, 0xa0, 0xbe,
  0x6d, 0xd3, 0x3e, 0x3f, 0x27, 0xc1, 0xfb, 0x3d, 0x90, 0x8c, 0xae, 0x3d,
  0xdf, 0x72, 0xb8, 0x3e, 0xac, 0x18, 0x44, 0xbe, 0x5d, 0x41, 0x47, 0x3e,
  0x77, 0x3b, 0x96, 0x3e, 0xf6, 0xfe, 0xff, 0xff, 0x04, 0x00, 0x00, 0x00,
  0x40, 0x00, 0x00, 0x00, 0xe7, 0x84, 0x84, 0xbd, 0x45, 0xce, 0xb1, 0xbd,
  0xd6, 0x11, 0x1e, 0x3e, 0x81, 0x03, 0xef, 0x3c, 0x8c, 0xe2, 0x19, 0xbd,
  0x72, 0x0b, 0x8c, 0x3e, 0x98, 0x24, 0x3f, 0x3e, 0xc8, 0xd2, 0xdb, 0xbc,
  0xc0, 0x8d, 0xfc, 0x3d, 0x1c, 0xd8, 0x23, 0x3f, 0xef, 0x0d, 0x32, 0x3e,
  0xa0, 0x09, 0x3f, 0x3d, 0x54, 0xb7, 0x34, 0x3e, 0x89, 0xbe, 0x0b, 0x3e,
  0x2b, 0xbf, 0x9e, 0x3e, 0xc3, 0x15, 0x02, 0xbd, 0x42, 0xff, 0xff, 0xff,
  0x04, 0x00, 0x00, 0x00, 0x20, 0x00, 0x00, 0x00, 0x29, 0x3e, 0xe0, 0x3d,
  0xc1, 0x25, 0x22, 0x3e, 0x09, 0xec, 0xcf, 0x3e, 0xf6, 0x4b, 0xf9, 0x3e,
  0x2c, 0xbf, 0xc1, 0x3e, 0x0c, 0x05, 0x3c, 0x3e, 0x10, 0x65, 0x3f, 0x3e,
  0x99, 0x85, 0x8f, 0x3e, 0x78, 0xf6, 0xff, 0xff, 0x7c, 0xf6, 0xff, 0xff,
  0x0f, 0x00, 0x00, 0x00, 0x4d, 0x4c, 0x49, 0x52, 0x20, 0x43, 0x6f, 0x6e,
  0x76, 0x65, 0x72, 0x74, 0x65, 0x64, 0x2e, 0x00, 0x01, 0x00, 0x00, 0x00,
  0x14, 0x00, 0x00, 0x00, 0x00, 0x00, 0x0e, 0x00, 0x18, 0x00, 0x14, 0x00,
  0x10, 0x00, 0x0c, 0x00, 0x08, 0x00, 0x04, 0x00, 0x0e, 0x00, 0x00, 0x00,
  0x14, 0x00, 0x00, 0x00, 0x1c, 0x00, 0x00, 0x00, 0xe0, 0x01, 0x00, 0x00,
  0xe4, 0x01, 0x00, 0x00, 0xe8, 0x01, 0x00, 0x00, 0x04, 0x00, 0x00, 0x00,
  0x6d, 0x61, 0x69, 0x6e, 0x00, 0x00, 0x00, 0x00, 0x07, 0x00, 0x00, 0x00,
  0x98, 0x01, 0x00, 0x00, 0x54, 0x01, 0x00, 0x00, 0x00, 0x01, 0x00, 0x00,
  0xb4, 0x00, 0x00, 0x00, 0x78, 0x00, 0x00, 0x00, 0x40, 0x00, 0x00, 0x00,
  0x04, 0x00, 0x00, 0x00, 0x22, 0xff, 0xff, 0xff, 0x1c, 0x00, 0x00, 0x00,
  0x00, 0x00, 0x00, 0x09, 0x1c, 0x00, 0x00, 0x00, 0x20, 0x00, 0x00, 0x00,
  0x03, 0x00, 0x00, 0x00, 0x00, 0x00, 0x06, 0x00, 0x08, 0x00, 0x04, 0x00,
  0x06, 0x00, 0x00, 0x00, 0x00, 0x00, 0x80, 0x3f, 0x01, 0x00, 0x00, 0x00,
  0x11, 0x00, 0x00, 0x00, 0x01, 0x00, 0x00, 0x00, 0x10, 0x00, 0x00, 0x00,
  0x0a, 0xff, 0xff, 0xff, 0x14, 0x00, 0x00, 0x00, 0x00, 0x00, 0x00, 0x08,
  0x10, 0x00, 0x00, 0x00, 0x14, 0x00, 0x00, 0x00, 0x02, 0x00, 0x00, 0x00,
  0x40, 0xf7, 0xff, 0xff, 0x01, 0x00, 0x00, 0x00, 0x10, 0x00, 0x00, 0x00,
  0x03, 0x00, 0x00, 0x00, 0x0f, 0x00, 0x00, 0x00, 0x05, 0x00, 0x00, 0x00,
  0x04, 0x00, 0x00, 0x00, 0x3e, 0xff, 0xff, 0xff, 0x14, 0x00, 0x00, 0x00,
  0x00, 0x00, 0x00, 0x08, 0x14, 0x00, 0x00, 0x00, 0x18, 0x00, 0x00, 0x00,
  0x02, 0x00, 0x00, 0x00, 0x7e, 0xff, 0xff, 0xff, 0x00, 0x00, 0x00, 0x01,
  0x01, 0x00, 0x00, 0x00, 0x0f, 0x00, 0x00, 0x00, 0x03, 0x00, 0x00, 0x00,
  0x0e, 0x00, 0x00, 0x00, 0x06, 0x00, 0x00, 0x00, 0x01, 0x00, 0x00, 0x00,
  0x76, 0xff, 0xff, 0xff, 0x14, 0x00, 0x00, 0x00, 0x00, 0x00, 0x00, 0x08,
  0x14, 0x00, 0x00, 0x00, 0x18, 0x00, 0x00, 0x00, 0x02, 0x00, 0x00, 0x00,
  0xb6, 0xff, 0xff, 0xff, 0x00, 0x00, 0x00, 0x01, 0x01, 0x00, 0x00, 0x00,
  0x0e, 0x00, 0x00, 0x00, 0x03, 0x00, 0x00, 0x00, 0x0d, 0x00, 0x00, 0x00,
  0x07, 0x00, 0x00, 0x00, 0x02, 0x00, 0x00, 0x00, 0x00, 0x00, 0x0e, 0x00,
  0x1a, 0x00, 0x14, 0x00, 0x10, 0x00, 0x0c, 0x00, 0x0b, 0x00, 0x04, 0x00,
  0x0e, 0x00, 0x00, 0x00, 0x1c, 0x00, 0x00, 0x00, 0x00, 0x00, 0x00, 0x08,
  0x1c, 0x00, 0x00, 0x00, 0x20, 0x00, 0x00, 0x00, 0x02, 0x00, 0x00, 0x00,
  0x00, 0x00, 0x06, 0x00, 0x08, 0x00, 0x07, 0x00, 0x06, 0x00, 0x00, 0x00,
  0x00, 0x00, 0x00, 0x01, 0x01, 0x00, 0x00, 0x00, 0x0d, 0x00, 0x00, 0x00,
  0x03, 0x00, 0x00, 0x00, 0x0c, 0x00, 0x00, 0x00, 0x08, 0x00, 0x00, 0x00,
  0x03, 0x00, 0x00, 0x00, 0x00, 0x00, 0x0e, 0x00, 0x18, 0x00, 0x14, 0x00,
  0x10, 0x00, 0x0c, 0x00, 0x0b, 0x00, 0x04, 0x00, 0x0e, 0x00, 0x00, 0x00,
  0x14, 0x00, 0x00, 0x00, 0x00, 0x00, 0x00, 0x15, 0x10, 0x00, 0x00, 0x00,
  0x14, 0x00, 0x00, 0x00, 0x01, 0x00, 0x00, 0x00, 0x44, 0xf8, 0xff, 0xff,
  0x01, 0x00, 0x00, 0x00, 0x0c, 0x00, 0x00, 0x00, 0x02, 0x00, 0x00, 0x00,
  0x0b, 0x00, 0x00, 0x00, 0x09, 0x00, 0x00, 0x00, 0x00, 0x00, 0x0e, 0x00,
  0x14, 0x00, 0x00, 0x00, 0x10, 0x00, 0x0c, 0x00, 0x0b, 0x00, 0x04, 0x00,
  0x0e, 0x00, 0x00, 0x00, 0x10, 0x00, 0x00, 0x00, 0x00, 0x00, 0x00, 0x1c,
  0x0c, 0x00, 0x00, 0x00, 0x10, 0x00, 0x00, 0x00, 0x80, 0xf8, 0xff, 0xff,
  0x01, 0x00, 0x00, 0x00, 0x0b, 0x00, 0x00, 0x00, 0x02, 0x00, 0x00, 0x00,
  0x00, 0x00, 0x00, 0x00, 0x0a, 0x00, 0x00, 0x00, 0x01, 0x00, 0x00, 0x00,
  0x11, 0x00, 0x00, 0x00, 0x01, 0x00, 0x00, 0x00, 0x00, 0x00, 0x00, 0x00,
  0x12, 0x00, 0x00, 0x00, 0x2c, 0x07, 0x00, 0x00, 0xac, 0x06, 0x00, 0x00,
  0x2c, 0x06, 0x00, 0x00, 0xc8, 0x05, 0x00, 0x00, 0x7c, 0x05, 0x00, 0x00,
  0x2c, 0x05, 0x00, 0x00, 0xdc, 0x04, 0x00, 0x00, 0x8c, 0x04, 0x00, 0x00,
  0x40, 0x04, 0x00, 0x00, 0xcc, 0x03, 0x00, 0x00, 0x94, 0x03, 0x00, 0x00,
  0x34, 0x03, 0x00, 0x00, 0xac, 0x02, 0x00, 0x00, 0x18, 0x02, 0x00, 0x00,
  0x7c, 0x01, 0x00, 0x00, 0xe0, 0x00, 0x00, 0x00, 0x60, 0x00, 0x00, 0x00,
  0x04, 0x00, 0x00, 0x00, 0x32, 0xf9, 0xff, 0xff, 0x00, 0x00, 0x00, 0x01,
  0x14, 0x00, 0x00, 0x00, 0x1c, 0x00, 0x00, 0x00, 0x1c, 0x00, 0x00, 0x00,
  0x12, 0x00, 0x00, 0x00, 0x34, 0x00, 0x00, 0x00, 0x02, 0x00, 0x00, 0x00,
  0xff, 0xff, 0xff, 0xff, 0x03, 0x00, 0x00, 0x00, 0x1c, 0xf9, 0xff, 0xff,
  0x1b, 0x00, 0x00, 0x00, 0x53, 0x74, 0x61, 0x74, 0x65, 0x66, 0x75, 0x6c,
  0x50, 0x61, 0x72, 0x74, 0x69, 0x74, 0x69, 0x6f, 0x6e, 0x65, 0x64, 0x43,
  0x61, 0x6c, 0x6c, 0x5f, 0x31, 0x3a, 0x30, 0x00, 0x02, 0x00, 0x00, 0x00,
  0x01, 0x00, 0x00, 0x00, 0x03, 0x00, 0x00, 0x00, 0x8a, 0xf9, 0xff, 0xff,
  0x00, 0x00, 0x00, 0x01, 0x14, 0x00, 0x00, 0x00, 0x1c, 0x00, 0x00, 0x00,
  0x1c, 0x00, 0x00, 0x00, 0x11, 0x00, 0x00, 0x00, 0x58, 0x00, 0x00, 0x00,
  0x02, 0x00, 0x00, 0x00, 0xff, 0xff, 0xff, 0xff, 0x03, 0x00, 0x00, 0x00,
  0x74, 0xf9, 0xff, 0xff, 0x3c, 0x00, 0x00, 0x00, 0x66, 0x75, 0x6e, 0x63,
  0x74, 0x69, 0x6f, 0x6e, 0x61, 0x6c, 0x5f, 0x31, 0x2f, 0x64, 0x65, 0x6e,
  0x73, 0x65, 0x5f, 0x33, 0x5f, 0x31, 0x2f, 0x4d, 0x61, 0x74, 0x4d, 0x75,
  0x6c, 0x3b, 0x66, 0x75, 0x6e, 0x63, 0x74, 0x69, 0x6f, 0x6e, 0x61, 0x6c,
  0x5f, 0x31, 0x2f, 0x64, 0x65, 0x6e, 0x73, 0x65, 0x5f, 0x33, 0x5f, 0x31,
  0x2f, 0x42, 0x69, 0x61, 0x73, 0x41, 0x64, 0x64, 0x00, 0x00, 0x00, 0x00,
  0x02, 0x00, 0x00, 0x00, 0x01, 0x00, 0x00, 0x00, 0x03, 0x00, 0x00, 0x00,
  0x06, 0xfa, 0xff, 0xff, 0x00, 0x00, 0x00, 0x01, 0x14, 0x00, 0x00, 0x00,
  0x1c, 0x00, 0x00, 0x00, 0x1c, 0x00, 0x00, 0x00, 0x10, 0x00, 0x00, 0x00,
  0x74, 0x00, 0x00, 0x00, 0x02, 0x00, 0x00, 0x00, 0xff, 0xff, 0xff, 0xff,
  0x08, 0x00, 0x00, 0x00, 0xf0, 0xf9, 0xff, 0xff, 0x58, 0x00, 0x00, 0x00,
  0x66, 0x75, 0x6e, 0x63, 0x74, 0x69, 0x6f, 0x6e, 0x61, 0x6c, 0x5f, 0x31,
  0x2f, 0x64, 0x65, 0x6e, 0x73, 0x65, 0x5f, 0x32, 0x5f, 0x31, 0x2f, 0x4d,
  0x61, 0x74, 0x4d, 0x75, 0x6c, 0x3b, 0x66, 0x75, 0x6e, 0x63, 0x74, 0x69,
  0x6f, 0x6e, 0x61, 0x6c, 0x5f, 0x31, 0x2f, 0x64, 0x65, 0x6e, 0x73, 0x65,
  0x5f, 0x32, 0x5f, 0x31, 0x2f, 0x52, 0x65, 0x6c, 0x75, 0x3b, 0x66, 0x75,
  0x6e, 0x63, 0x74, 0x69, 0x6f, 0x6e, 0x61, 0x6c, 0x5f, 0x31, 0x2f, 0x64,
  0x65, 0x6e, 0x73, 0x65, 0x5f, 0x32, 0x5f, 0x31, 0x2f, 0x42, 0x69, 0x61,
  0x73, 0x41, 0x64, 0x64, 0x00, 0x00, 0x00, 0x00, 0x02, 0x00, 0x00, 0x00,
  0x01, 0x00, 0x00, 0x00, 0x08, 0x00, 0x00, 0x00, 0x9e, 0xfa, 0xff, 0xff,
  0x00, 0x00, 0x00, 0x01, 0x14, 0x00, 0x00, 0x00, 0x1c, 0x00, 0x00, 0x00,
  0x1c, 0x00, 0x00, 0x00, 0x0f, 0x00, 0x00, 0x00, 0x74, 0x00, 0x00, 0x00,
  0x02, 0x00, 0x00, 0x00, 0xff, 0xff, 0xff, 0xff, 0x10, 0x00, 0x00, 0x00,
  0x88, 0xfa, 0xff, 0xff, 0x58, 0x00, 0x00, 0x00, 0x66, 0x75, 0x6e, 0x63,
  0x74, 0x69, 0x6f, 0x6e, 0x61, 0x6c, 0x5f, 0x31, 0x2f, 0x64, 0x65, 0x6e,
  0x73, 0x65, 0x5f, 0x31, 0x5f, 0x32, 0x2f, 0x4d, 0x61, 0x74, 0x4d, 0x75,
  0x6c, 0x3b, 0x66, 0x75, 0x6e, 0x63, 0x74, 0x69, 0x6f, 0x6e, 0x61, 0x6c,
  0x5f, 0x31, 0x2f, 0x64, 0x65, 0x6e, 0x73, 0x65, 0x5f, 0x31, 0x5f, 0x32,
  0x2f, 0x52, 0x65, 0x6c, 0x75, 0x3b, 0x66, 0x75, 0x6e, 0x63, 0x74, 0x69,
  0x6f, 0x6e, 0x61, 0x6c, 0x5f, 0x31, 0x2f, 0x64, 0x65, 0x6e, 0x73, 0x65,
  0x5f, 0x31, 0x5f, 0x32, 0x2f, 0x42, 0x69, 0x61, 0x73, 0x41, 0x64, 0x64,
  0x00, 0x00, 0x00, 0x00, 0x02, 0x00, 0x00, 0x00, 0x01, 0x00, 0x00, 0x00,
  0x10, 0x00, 0x00, 0x00, 0x36, 0xfb, 0xff, 0xff, 0x00, 0x00, 0x00, 0x01,
  0x14, 0x00, 0x00, 0x00, 0x1c, 0x00, 0x00, 0x00, 0x1c, 0x00, 0x00, 0x00,
  0x0e, 0x00, 0x00, 0x00, 0x6c, 0x00, 0x00, 0x00, 0x02, 0x00, 0x00, 0x00,
  0xff, 0xff, 0xff, 0xff, 0x20, 0x00, 0x00, 0x00, 0x20, 0xfb, 0xff, 0xff,
  0x52, 0x00, 0x00, 0x00, 0x66, 0x75, 0x6e, 0x63, 0x74, 0x69, 0x6f, 0x6e,
  0x61, 0x6c, 0x5f, 0x31, 0x2f, 0x64, 0x65, 0x6e, 0x73, 0x65, 0x5f, 0x31,
  0x2f, 0x4d, 0x61, 0x74, 0x4d, 0x75, 0x6c, 0x3b, 0x66, 0x75, 0x6e, 0x63,
  0x74, 0x69, 0x6f, 0x6e, 0x61, 0x6c, 0x5f, 0x31, 0x2f, 0x64, 0x65, 0x6e,
  0x73, 0x65, 0x5f, 0x31, 0x2f, 0x52, 0x65, 0x6c, 0x75, 0x3b, 0x66, 0x75,
  0x6e, 0x63, 0x74, 0x69, 0x6f, 0x6e, 0x61, 0x6c, 0x5f, 0x31, 0x2f, 0x64,
  0x65, 0x6e, 0x73, 0x65, 0x5f, 0x31, 0x2f, 0x42, 0x69, 0x61, 0x73, 0x41,
  0x64, 0x64, 0x00, 0x00, 0x02, 0x00, 0x00, 0x00, 0x01, 0x00, 0x00, 0x00,
  0x20, 0x00, 0x00, 0x00, 0xc6, 0xfb, 0xff, 0xff, 0x00, 0x00, 0x00, 0x01,
  0x14, 0x00, 0x00, 0x00, 0x1c, 0x00, 0x00, 0x00, 0x1c, 0x00, 0x00, 0x00,
  0x0d, 0x00, 0x00, 0x00, 0x60, 0x00, 0x00, 0x00, 0x02, 0x00, 0x00, 0x00,
  0xff, 0xff, 0xff, 0xff, 0x03, 0x00, 0x00, 0x00, 0xb0, 0xfb, 0xff, 0xff,
  0x44, 0x00, 0x00, 0x00, 0x66, 0x75, 0x6e, 0x63, 0x74, 0x69, 0x6f, 0x6e,
  0x61, 0x6c, 0x5f, 0x31, 0x2f, 0x69, 0x6e, 0x70, 0x75, 0x74, 0x5f, 0x6e,
  0x6f, 0x72, 0x6d, 0x5f, 0x31, 0x2f, 0x74, 0x72, 0x75, 0x65, 0x64, 0x69,
  0x76, 0x3b, 0x66, 0x75, 0x6e, 0x63, 0x74, 0x69, 0x6f, 0x6e, 0x61, 0x6c,
  0x5f, 0x31, 0x2f, 0x69, 0x6e, 0x70, 0x75, 0x74, 0x5f, 0x6e, 0x6f, 0x72,
  0x6d, 0x5f, 0x31, 0x2f, 0x4d, 0x61, 0x78, 0x69, 0x6d, 0x75, 0x6d, 0x31,
  0x00, 0x00, 0x00, 0x00, 0x02, 0x00, 0x00, 0x00, 0x01, 0x00, 0x00, 0x00,
  0x03, 0x00, 0x00, 0x00, 0x4a, 0xfc, 0xff, 0xff, 0x00, 0x00, 0x00, 0x01,
  0x14, 0x00, 0x00, 0x00, 0x1c, 0x00, 0x00, 0x00, 0x1c, 0x00, 0x00, 0x00,
  0x0c, 0x00, 0x00, 0x00, 0x38, 0x00, 0x00, 0x00, 0x02, 0x00, 0x00, 0x00,
  0xff, 0xff, 0xff, 0xff, 0x03, 0x00, 0x00, 0x00, 0x34, 0xfc, 0xff, 0xff,
  0x1d, 0x00, 0x00, 0x00, 0x66, 0x75, 0x6e, 0x63, 0x74, 0x69, 0x6f, 0x6e,
  0x61, 0x6c, 0x5f, 0x31, 0x2f, 0x69, 0x6e, 0x70, 0x75, 0x74, 0x5f, 0x6e,
  0x6f, 0x72, 0x6d, 0x5f, 0x31, 0x2f, 0x53, 0x75, 0x62, 0x00, 0x00, 0x00,
  0x02, 0x00, 0x00, 0x00, 0x01, 0x00, 0x00, 0x00, 0x03, 0x00, 0x00, 0x00,
  0x22, 0xfd, 0xff, 0xff, 0x00, 0x00, 0x00, 0x01, 0x10, 0x00, 0x00, 0x00,
  0x10, 0x00, 0x00, 0x00, 0x0b, 0x00, 0x00, 0x00, 0x14, 0x00, 0x00, 0x00,
  0x80, 0xfc, 0xff, 0xff, 0x07, 0x00, 0x00, 0x00, 0x43, 0x6f, 0x6e, 0x73,
  0x74, 0x5f, 0x31, 0x00, 0x02, 0x00, 0x00, 0x00, 0x01, 0x00, 0x00, 0x00,
  0x03, 0x00, 0x00, 0x00, 0x56, 0xfd, 0xff, 0xff, 0x00, 0x00, 0x00, 0x01,
  0x10, 0x00, 0x00, 0x00, 0x10, 0x00, 0x00, 0x00, 0x0a, 0x00, 0x00, 0x00,
  0x50, 0x00, 0x00, 0x00, 0xb4, 0xfc, 0xff, 0xff, 0x43, 0x00, 0x00, 0x00,
  0x66, 0x75, 0x6e, 0x63, 0x74, 0x69, 0x6f, 0x6e, 0x61, 0x6c, 0x5f, 0x31,
  0x2f, 0x69, 0x6e, 0x70, 0x75, 0x74, 0x5f, 0x6e, 0x6f, 0x72, 0x6d, 0x5f,
  0x31, 0x2f, 0x74, 0x72, 0x75, 0x65, 0x64, 0x69, 0x76, 0x3b, 0x66, 0x75,
  0x6e, 0x63, 0x74, 0x69, 0x6f, 0x6e, 0x61, 0x6c, 0x5f, 0x31, 0x2f, 0x69,
  0x6e, 0x70, 0x75, 0x74, 0x5f, 0x6e, 0x6f, 0x72, 0x6d, 0x5f, 0x31, 0x2f,
  0x4d, 0x61, 0x78, 0x69, 0x6d, 0x75, 0x6d, 0x00, 0x02, 0x00, 0x00, 0x00,
  0x01, 0x00, 0x00, 0x00, 0x03, 0x00, 0x00, 0x00, 0xc6, 0xfd, 0xff, 0xff,
  0x00, 0x00, 0x00, 0x01, 0x10, 0x00, 0x00, 0x00, 0x10, 0x00, 0x00, 0x00,
  0x09, 0x00, 0x00, 0x00, 0x28, 0x00, 0x00, 0x00, 0x24, 0xfd, 0xff, 0xff,
  0x1b, 0x00, 0x00, 0x00, 0x66, 0x75, 0x6e, 0x63, 0x74, 0x69, 0x6f, 0x6e,
  0x61, 0x6c, 0x5f, 0x31, 0x2f, 0x64, 0x65, 0x6e, 0x73, 0x65, 0x5f, 0x31,
  0x2f, 0x4d, 0x61, 0x74, 0x4d, 0x75, 0x6c, 0x00, 0x02, 0x00, 0x00, 0x00,
  0x20, 0x00, 0x00, 0x00, 0x03, 0x00, 0x00, 0x00, 0x0e, 0xfe, 0xff, 0xff,
  0x00, 0x00, 0x00, 0x01, 0x10, 0x00, 0x00, 0x00, 0x10, 0x00, 0x00, 0x00,
  0x08, 0x00, 0x00, 0x00, 0x2c, 0x00, 0x00, 0x00, 0x6c, 0xfd, 0xff, 0xff,
  0x1d, 0x00, 0x00, 0x00, 0x66, 0x75, 0x6e, 0x63, 0x74, 0x69, 0x6f, 0x6e,
  0x61, 0x6c, 0x5f, 0x31, 0x2f, 0x64, 0x65, 0x6e, 0x73, 0x65, 0x5f, 0x31,
  0x5f, 0x32, 0x2f, 0x4d, 0x61, 0x74, 0x4d, 0x75, 0x6c, 0x00, 0x00, 0x00,
  0x02, 0x00, 0x00, 0x00, 0x10, 0x00, 0x00, 0x00, 0x20, 0x00, 0x00, 0x00,
  0x5a, 0xfe, 0xff, 0xff, 0x00, 0x00, 0x00, 0x01, 0x10, 0x00, 0x00, 0x00,
  0x10, 0x00, 0x00, 0x00, 0x07, 0x00, 0x00, 0x00, 0x2c, 0x00, 0x00, 0x00,
  0xb8, 0xfd, 0xff, 0xff, 0x1d, 0x00, 0x00, 0x00, 0x66, 0x75, 0x6e, 0x63,
  0x74, 0x69, 0x6f, 0x6e, 0x61, 0x6c, 0x5f, 0x31, 0x2f, 0x64, 0x65, 0x6e,
  0x73, 0x65, 0x5f, 0x32, 0x5f, 0x31, 0x2f, 0x4d, 0x61, 0x74, 0x4d, 0x75,
  0x6c, 0x00, 0x00, 0x00, 0x02, 0x00, 0x00, 0x00, 0x08, 0x00, 0x00, 0x00,
  0x10, 0x00, 0x00, 0x00, 0xa6, 0xfe, 0xff, 0xff, 0x00, 0x00, 0x00, 0x01,
  0x10, 0x00, 0x00, 0x00, 0x10, 0x00, 0x00, 0x00, 0x06, 0x00, 0x00, 0x00,
  0x2c, 0x00, 0x00, 0x00, 0x04, 0xfe, 0xff, 0xff, 0x1d, 0x00, 0x00, 0x00,
  0x66, 0x75, 0x6e, 0x63, 0x74, 0x69, 0x6f, 0x6e, 0x61, 0x6c, 0x5f, 0x31,
  0x2f, 0x64, 0x65, 0x6e, 0x73, 0x65, 0x5f, 0x33, 0x5f, 0x31, 0x2f, 0x4d,
  0x61, 0x74, 0x4d, 0x75, 0x6c, 0x00, 0x00, 0x00, 0x02, 0x00, 0x00, 0x00,
  0x03, 0x00, 0x00, 0x00, 0x08, 0x00, 0x00, 0x00, 0xf2, 0xfe, 0xff, 0xff,
  0x00, 0x00, 0x00, 0x01, 0x10, 0x00, 0x00, 0x00, 0x10, 0x00, 0x00, 0x00,
  0x05, 0x00, 0x00, 0x00, 0x2c, 0x00, 0x00, 0x00, 0x50, 0xfe, 0xff, 0xff,
  0x1e, 0x00, 0x00, 0x00, 0x66, 0x75, 0x6e, 0x63, 0x74, 0x69, 0x6f, 0x6e,
  0x61, 0x6c, 0x5f, 0x31, 0x2f, 0x64, 0x65, 0x6e, 0x73, 0x65, 0x5f, 0x33,
  0x5f, 0x31, 0x2f, 0x42, 0x69, 0x61, 0x73, 0x41, 0x64, 0x64, 0x00, 0x00,
  0x01, 0x00, 0x00, 0x00, 0x03, 0x00, 0x00, 0x00, 0x3a, 0xff, 0xff, 0xff,
  0x00, 0x00, 0x00, 0x01, 0x10, 0x00, 0x00, 0x00, 0x10, 0x00, 0x00, 0x00,
  0x04, 0x00, 0x00, 0x00, 0x44, 0x00, 0x00, 0x00, 0x98, 0xfe, 0xff, 0xff,
  0x36, 0x00, 0x00, 0x00, 0x66, 0x75, 0x6e, 0x63, 0x74, 0x69, 0x6f, 0x6e,
  0x61, 0x6c, 0x5f, 0x31, 0x2f, 0x64, 0x65, 0x6e, 0x73, 0x65, 0x5f, 0x31,
  0x2f, 0x52, 0x65, 0x6c, 0x75, 0x3b, 0x66, 0x75, 0x6e, 0x63, 0x74, 0x69,
  0x6f, 0x6e, 0x61, 0x6c, 0x5f, 0x31, 0x2f, 0x64, 0x65, 0x6e, 0x73, 0x65,
  0x5f, 0x31, 0x2f, 0x42, 0x69, 0x61, 0x73, 0x41, 0x64, 0x64, 0x00, 0x00,
  0x01, 0x00, 0x00, 0x00, 0x20, 0x00, 0x00, 0x00, 0x9a, 0xff, 0xff, 0xff,
  0x00, 0x00, 0x00, 0x01, 0x10, 0x00, 0x00, 0x00, 0x10, 0x00, 0x00, 0x00,
  0x03, 0x00, 0x00, 0x00, 0x48, 0x00, 0x00, 0x00, 0xf8, 0xfe, 0xff, 0xff,
  0x3a, 0x00, 0x00, 0x00, 0x66, 0x75, 0x6e, 0x63, 0x74, 0x69, 0x6f, 0x6e,
  0x61, 0x6c, 0x5f, 0x31, 0x2f, 0x64, 0x65, 0x6e, 0x73, 0x65, 0x5f, 0x31,
  0x5f, 0x32, 0x2f, 0x52, 0x65, 0x6c, 0x75, 0x3b, 0x66, 0x75, 0x6e, 0x63,
  0x74, 0x69, 0x6f, 0x6e, 0x61, 0x6c, 0x5f, 0x31, 0x2f, 0x64, 0x65, 0x6e,
  0x73, 0x65, 0x5f, 0x31, 0x5f, 0x32, 0x2f, 0x42, 0x69, 0x61, 0x73, 0x41,
  0x64, 0x64, 0x00, 0x00, 0x01, 0x00, 0x00, 0x00, 0x10, 0x00, 0x00, 0x00,
  0x00, 0x00, 0x16, 0x00, 0x18, 0x00, 0x14, 0x00, 0x00, 0x00, 0x10, 0x00,
  0x0c, 0x00, 0x08, 0x00, 0x00, 0x00, 0x00, 0x00, 0x00, 0x00, 0x07, 0x00,
  0x16, 0x00, 0x00, 0x00, 0x00, 0x00, 0x00, 0x01, 0x10, 0x00, 0x00, 0x00,
  0x10, 0x00, 0x00, 0x00, 0x02, 0x00, 0x00, 0x00, 0x48, 0x00, 0x00, 0x00,
  0x74, 0xff, 0xff, 0xff, 0x3a, 0x00, 0x00, 0x00, 0x66, 0x75, 0x6e, 0x63,
  0x74, 0x69, 0x6f, 0x6e, 0x61, 0x6c, 0x5f, 0x31, 0x2f, 0x64, 0x65, 0x6e,
  0x73, 0x65, 0x5f, 0x32, 0x5f, 0x31, 0x2f, 0x52, 0x65, 0x6c, 0x75, 0x3b,
  0x66, 0x75, 0x6e, 0x63, 0x74, 0x69, 0x6f, 0x6e, 0x61, 0x6c, 0x5f, 0x31,
  0x2f, 0x64, 0x65, 0x6e, 0x73, 0x65, 0x5f, 0x32, 0x5f, 0x31, 0x2f, 0x42,
  0x69, 0x61, 0x73, 0x41, 0x64, 0x64, 0x00, 0x00, 0x01, 0x00, 0x00, 0x00,
  0x08, 0x00, 0x00, 0x00, 0x00, 0x00, 0x16, 0x00, 0x1c, 0x00, 0x18, 0x00,
  0x00, 0x00, 0x14, 0x00, 0x10, 0x00, 0x0c, 0x00, 0x00, 0x00, 0x00, 0x00,
  0x08, 0x00, 0x07, 0x00, 0x16, 0x00, 0x00, 0x00, 0x00, 0x00, 0x00, 0x01,
  0x14, 0x00, 0x00, 0x00, 0x20, 0x00, 0x00, 0x00, 0x20, 0x00, 0x00, 0x00,
  0x01, 0x00, 0x00, 0x00, 0x3c, 0x00, 0x00, 0x00, 0x02, 0x00, 0x00, 0x00,
  0xff, 0xff, 0xff, 0xff, 0x03, 0x00, 0x00, 0x00, 0x04, 0x00, 0x04, 0x00,
  0x04, 0x00, 0x00, 0x00, 0x1e, 0x00, 0x00, 0x00, 0x73, 0x65, 0x72, 0x76,
  0x69, 0x6e, 0x67, 0x5f, 0x64, 0x65, 0x66, 0x61, 0x75, 0x6c, 0x74, 0x5f,
  0x6b, 0x65, 0x72, 0x61, 0x73, 0x5f, 0x74, 0x65, 0x6e, 0x73, 0x6f, 0x72,
  0x3a, 0x30, 0x00, 0x00, 0x02, 0x00, 0x00, 0x00, 0x01, 0x00, 0x00, 0x00,
  0x03, 0x00, 0x00, 0x00, 0x04, 0x00, 0x00, 0x00, 0x40, 0x00, 0x00, 0x00,
  0x24, 0x00, 0x00, 0x00, 0x14, 0x00, 0x00, 0x00, 0x04, 0x00, 0x00, 0x00,
  0xdc, 0xff, 0xff, 0xff, 0x19, 0x00, 0x00, 0x00, 0x00, 0x00, 0x00, 0x19,
  0xe8, 0xff, 0xff, 0xff, 0x09, 0x00, 0x00, 0x00, 0x00, 0x00, 0x00, 0x09,
  0xf4, 0xff, 0xff, 0xff, 0x12, 0x00, 0x00, 0x00, 0x00, 0x00, 0x00, 0x12,
  0x0c, 0x00, 0x0c, 0x00, 0x0b, 0x00, 0x00, 0x00, 0x00, 0x00, 0x04, 0x00,
  0x0c, 0x00, 0x00, 0x00, 0x29, 0x00, 0x00, 0x00, 0x00, 0x00, 0x00, 0x29
};

