const unsigned char dht_anomaly_model_tflite[] = {
  0x1c, 0x00, 0x00, 0x00, 0x54, 0x46, 0x4c, 0x33, 0x14, 0x00, 0x20, 0x00,
  0x1c, 0x00, 0x18, 0x00, 0x14, 0x00, 0x10, 0x00, 0x0c, 0x00, 0x00, 0x00,
  0x08, 0x00, 0x04, 0x00, 0x14, 0x00, 0x00, 0x00, 0x1c, 0x00, 0x00, 0x00,
  0x98, 0x00, 0x00, 0x00, 0xf0, 0x00, 0x00, 0x00, 0x9c, 0x05, 0x00, 0x00,
  0xac, 0x05, 0x00, 0x00, 0xe4, 0x0c, 0x00, 0x00, 0x03, 0x00, 0x00, 0x00,
  0x01, 0x00, 0x00, 0x00, 0x10, 0x00, 0x00, 0x00, 0x00, 0x00, 0x0a, 0x00,
  0x10, 0x00, 0x0c, 0x00, 0x08, 0x00, 0x04, 0x00, 0x0a, 0x00, 0x00, 0x00,
  0x0c, 0x00, 0x00, 0x00, 0x1c, 0x00, 0x00, 0x00, 0x3c, 0x00, 0x00, 0x00,
  0x0f, 0x00, 0x00, 0x00, 0x73, 0x65, 0x72, 0x76, 0x69, 0x6e, 0x67, 0x5f,
  0x64, 0x65, 0x66, 0x61, 0x75, 0x6c, 0x74, 0x00, 0x01, 0x00, 0x00, 0x00,
  0x04, 0x00, 0x00, 0x00, 0x90, 0xff, 0xff, 0xff, 0x0e, 0x00, 0x00, 0x00,
  0x04, 0x00, 0x00, 0x00, 0x08, 0x00, 0x00, 0x00, 0x6f, 0x75, 0x74, 0x70,
  0x75, 0x74, 0x5f, 0x30, 0x00, 0x00, 0x00, 0x00, 0x01, 0x00, 0x00, 0x00,
  0x04, 0x00, 0x00, 0x00, 0x52, 0xfa, 0xff, 0xff, 0x04, 0x00, 0x00, 0x00,
  0x0c, 0x00, 0x00, 0x00, 0x6b, 0x65, 0x72, 0x61, 0x73, 0x5f, 0x74, 0x65,
  0x6e, 0x73, 0x6f, 0x72, 0x00, 0x00, 0x00, 0x00, 0x02, 0x00, 0x00, 0x00,
  0x34, 0x00, 0x00, 0x00, 0x04, 0x00, 0x00, 0x00, 0xdc, 0xff, 0xff, 0xff,
  0x11, 0x00, 0x00, 0x00, 0x04, 0x00, 0x00, 0x00, 0x13, 0x00, 0x00, 0x00,
  0x43, 0x4f, 0x4e, 0x56, 0x45, 0x52, 0x53, 0x49, 0x4f, 0x4e, 0x5f, 0x4d,
  0x45, 0x54, 0x41, 0x44, 0x41, 0x54, 0x41, 0x00, 0x08, 0x00, 0x0c, 0x00,
  0x08, 0x00, 0x04, 0x00, 0x08, 0x00, 0x00, 0x00, 0x10, 0x00, 0x00, 0x00,
  0x04, 0x00, 0x00, 0x00, 0x13, 0x00, 0x00, 0x00, 0x6d, 0x69, 0x6e, 0x5f,
  0x72, 0x75, 0x6e, 0x74, 0x69, 0x6d, 0x65, 0x5f, 0x76, 0x65, 0x72, 0x73,
  0x69, 0x6f, 0x6e, 0x00, 0x12, 0x00, 0x00, 0x00, 0xa8, 0x04, 0x00, 0x00,
  0xa0, 0x04, 0x00, 0x00, 0x70, 0x04, 0x00, 0x00, 0x20, 0x04, 0x00, 0x00,
  0x04, 0x04, 0x00, 0x00, 0x94, 0x03, 0x00, 0x00, 0x84, 0x01, 0x00, 0x00,
  0xf4, 0x00, 0x00, 0x00, 0xdc, 0x00, 0x00, 0x00, 0xc4, 0x00, 0x00, 0x00,
  0xbc, 0x00, 0x00, 0x00, 0xb4, 0x00, 0x00, 0x00, 0xac, 0x00, 0x00, 0x00,
  0xa4, 0x00, 0x00, 0x00, 0x9c, 0x00, 0x00, 0x00, 0x94, 0x00, 0x00, 0x00,
  0x74, 0x00, 0x00, 0x00, 0x04, 0x00, 0x00, 0x00, 0x16, 0xfb, 0xff, 0xff,
  0x04, 0x00, 0x00, 0x00, 0x60, 0x00, 0x00, 0x00, 0x0c, 0x00, 0x00, 0x00,
  0x08, 0x00, 0x0e, 0x00, 0x08, 0x00, 0x04, 0x00, 0x08, 0x00, 0x00, 0x00,
  0x10, 0x00, 0x00, 0x00, 0x28, 0x00, 0x00, 0x00, 0x00, 0x00, 0x06, 0x00,
  0x08, 0x00, 0x04, 0x00, 0x06, 0x00, 0x00, 0x00, 0x04, 0x00, 0x00, 0x00,
  0x01, 0x00, 0x00, 0x00, 0xea, 0x03, 0x00, 0x00, 0x0c, 0x00, 0x18, 0x00,
  0x14, 0x00, 0x10, 0x00, 0x0c, 0x00, 0x04, 0x00, 0x0c, 0x00, 0x00, 0x00,
  0xa0, 0xe2, 0x65, 0xd0, 0xc5, 0xbf, 0x54, 0xb9, 0x02, 0x00, 0x00, 0x00,
  0x02, 0x00, 0x00, 0x00, 0x04, 0x00, 0x00, 0x00, 0x06, 0x00, 0x00, 0x00,
  0x32, 0x2e, 0x32, 0x30, 0x2e, 0x30, 0x00, 0x00, 0x82, 0xfb, 0xff, 0xff,
  0x04, 0x00, 0x00, 0x00, 0x10, 0x00, 0x00, 0x00, 0x31, 0x2e, 0x36, 0x2e,
  0x30, 0x00, 0x00, 0x00, 0x00, 0x00, 0x00, 0x00, 0x00, 0x00, 0x00, 0x00,
  0x0c, 0xf5, 0xff, 0xff, 0x10, 0xf5, 0xff, 0xff, 0x14, 0xf5, 0xff, 0xff,
  0x18, 0xf5, 0xff, 0xff, 0x1c, 0xf5, 0xff, 0xff, 0x20, 0xf5, 0xff, 0xff,
  0xb6, 0xfb, 0xff, 0xff, 0x04, 0x00, 0x00, 0x00, 0x08, 0x00, 0x00, 0x00,
  0xba, 0xe2, 0xdf, 0x41, 0x7e, 0x41, 0x5c, 0x42, 0xca, 0xfb, 0xff, 0xff,
  0x04, 0x00, 0x00, 0x00, 0x08, 0x00, 0x00, 0x00, 0x89, 0xff, 0x1e, 0x3e,
  0xea, 0xc5, 0x6a, 0x3d, 0xde, 0xfb, 0xff, 0xff, 0x04, 0x00, 0x00, 0x00,
  0x80, 0x00, 0x00, 0x00, 0x41, 0x05, 0x87, 0xbf, 0xbc, 0x0a, 0x12, 0xbf,
  0x91, 0xae, 0x04, 0x3c, 0xe4, 0xd5, 0x86, 0xbf, 0x9a, 0xdd, 0xef, 0xbf,
  0x02, 0xf1, 0x7e, 0x3f, 0x0c, 0x15, 0x48, 0xbf, 0x55, 0x56, 0x3c, 0x3f,
  0x4f, 0xef, 0x18, 0x3c, 0x2f, 0x23, 0x95, 0xbf, 0x1f, 0x06, 0xa5, 0x3c,
  0x8f, 0x69, 0x92, 0x3f, 0x50, 0x33, 0x46, 0x3e, 0x71, 0x58, 0x5b, 0x3b,
  0x32, 0x84, 0xf5, 0x3e, 0xc7, 0x20, 0x2b, 0xbf, 0x5f, 0xff, 0xa7, 0x3f,
  0xf7, 0x6d, 0x2e, 0xbf, 0xd6, 0xff, 0xb4, 0xbf, 0x91, 0x49, 0x43, 0xbf,
  0x79, 0xac, 0x01, 0x40, 0x05, 0x68, 0x8a, 0x3f, 0x7c, 0x1e, 0xd7, 0x3e,
  0xf5, 0xa6, 0x2f, 0x3b, 0xfd, 0x9a, 0x85, 0x3c, 0x55, 0x63, 0x8f, 0x3f,
  0x94, 0x21, 0xba, 0x3f, 0x9b, 0xd8, 0x18, 0xbc, 0xa6, 0x92, 0x04, 0x3f,
  0xa3, 0xc2, 0xc3, 0x3e, 0x36, 0xf8, 0xcc, 0x3f, 0xde, 0xcd, 0x50, 0xbf,
  0x6a, 0xfc, 0xff, 0xff, 0x04, 0x00, 0x00, 0x00, 0x00, 0x02, 0x00, 0x00,
  0x8b, 0x1d, 0x21, 0x3f, 0xf7, 0x02, 0x70, 0x40, 0xfd, 0xd7, 0xd9, 0x3f,
  0x9e, 0x4f, 0x82, 0x3d, 0x8f, 0x67, 0x4e, 0x40, 0x3b, 0x69, 0x55, 0x40,
  0x99, 0x2b, 0xba, 0xbe, 0xf4, 0x5c, 0x81, 0xbe, 0x4e, 0xc5, 0x74, 0x3f,
  0x5a, 0xed, 0xcf, 0x3f, 0xaa, 0xe9, 0xc6, 0x3f, 0x6f, 0xea, 0xa6, 0xbe,
  0x99, 0x33, 0x3f, 0x40, 0x19, 0xed, 0x37, 0x40, 0x2d, 0x5c, 0xf1, 0x3d,
  0x0f, 0x67, 0xf3, 0x3f, 0x92, 0xd6, 0xca, 0x3f, 0x0a, 0xca, 0x6d, 0x40,
  0x07, 0xba, 0xff, 0x3f, 0x14, 0xcf, 0x6f, 0xbe, 0x9f, 0x72, 0x75, 0x40,
  0x35, 0x18, 0x71, 0x40, 0x51, 0xed, 0x70, 0xbe, 0x3f, 0xa2, 0xc8, 0xbc,
  0x6a, 0xe5, 0xb7, 0x3f, 0x82, 0xe5, 0xdc, 0x3f, 0xa5, 0x5d, 0xd8, 0x3f,
  0x99, 0xcb, 0xfb, 0xbd, 0xf0, 0x47, 0x6c, 0x40, 0xf6, 0x15, 0x34, 0x40,
  0xd8, 0x6a, 0x90, 0xbe, 0x8b, 0xef, 0xb5, 0x3f, 0xfc, 0x9c, 0x77, 0x3e,
  0x7b, 0xcc, 0x9f, 0x3f, 0x17, 0x87, 0x81, 0x3d, 0x26, 0xea, 0x57, 0x3f,
  0x1f, 0xf4, 0x83, 0x3f, 0x61, 0x89, 0xa9, 0x3f, 0xb7, 0x34, 0x84, 0xbf,
  0x04, 0x1e, 0xf4, 0xbe, 0x53, 0x0b, 0x25, 0x3f, 0x24, 0x40, 0x60, 0x3f,
  0xa2, 0xfd, 0x6c, 0x3e, 0xa0, 0xb8, 0x5a, 0xbe, 0x22, 0x6e, 0xa7, 0x3f,
  0x68, 0x79, 0x4b, 0x3f, 0x55, 0x72, 0x43, 0x3f, 0xf1, 0x2b, 0x3b, 0x3f,
  0x91, 0xa6, 0xf3, 0x3e, 0x6e, 0x5c, 0x92, 0x3f, 0x3a, 0xf4, 0x3a, 0x3e,
  0x9c, 0xae, 0x1f, 0x3f, 0xa7, 0x94, 0x92, 0x3f, 0x69, 0x7c, 0x85, 0x3f,
  0xbe, 0xe8, 0x70, 0xbf, 0xb6, 0x67, 0x57, 0x3b, 0x49, 0xea, 0x12, 0x3f,
  0x15, 0xd3, 0xdf, 0x3e, 0xe3, 0x0c, 0x9a, 0x3e, 0x3a, 0xd8, 0xe6, 0xbe,
  0xc6, 0x53, 0xbc, 0x3f, 0xfd, 0xe3, 0x18, 0x3f, 0x2c, 0x77, 0x80, 0x3f,
  0x08, 0xa9, 0xef, 0x3e, 0x04, 0xc2, 0x89, 0x3e, 0x17, 0x93, 0x74, 0x3f,
  0x4a, 0x3a, 0x1f, 0x3f, 0x03, 0xab, 0x09, 0x3d, 0xd9, 0x9c, 0xa0, 0x3f,
  0x2a, 0xee, 0x94, 0x3f, 0xca, 0xf7, 0x03, 0xbf, 0x4b, 0x78, 0xef, 0x3e,
  0x79, 0x4b, 0x00, 0x3f, 0x70, 0x9d, 0xed, 0x3e, 0x87, 0xe8, 0x38, 0x3f,
  0x3d, 0xbf, 0x7b, 0xbf, 0xc4, 0x08, 0xcf, 0x3f, 0x8a, 0x18, 0x0d, 0x3f,
  0x53, 0xad, 0x59, 0x3f, 0x8c, 0xdf, 0x3a, 0x3e, 0x56, 0x82, 0x8b, 0xbf,
  0x69, 0x1d, 0xa9, 0xc0, 0xbc, 0xb1, 0xad, 0xbf, 0xfc, 0x45, 0x69, 0x3d,
  0xe5, 0x95, 0x8b, 0xc0, 0xdb, 0xd2, 0x88, 0xc0, 0xca, 0x7a, 0x47, 0x3f,
  0x8b, 0x75, 0x29, 0x3f, 0x1f, 0xc1, 0x50, 0xbf, 0x1f, 0x3f, 0xbf, 0xbf,
  0xdb, 0xb2, 0xe8, 0xbf, 0xdd, 0x20, 0x45, 0x3f, 0xb1, 0xf8, 0xa4, 0xc0,
  0xd7, 0x4c, 0x6d, 0xc0, 0xb6, 0xa0, 0x8e, 0xbc, 0x05, 0x20, 0x99, 0xbf,
  0xbd, 0x77, 0x78, 0x3f, 0x64, 0xe9, 0x90, 0x40, 0x12, 0xc5, 0xc9, 0x3f,
  0x74, 0x96, 0x06, 0x3f, 0xa5, 0x0f, 0x76, 0x40, 0x38, 0xe9, 0x88, 0x40,
  0x6b, 0x65, 0x21, 0xbf, 0xce, 0x0e, 0x49, 0x3e, 0x70, 0x54, 0x6d, 0x3f,
  0x93, 0xcc, 0xd4, 0x3f, 0x13, 0x71, 0xe2, 0x3f, 0x8f, 0xdf, 0xa7, 0xbd,
  0x47, 0xf3, 0x75, 0x40, 0xce, 0x04, 0x53, 0x40, 0xae, 0x50, 0xe7, 0xbd,
  0xf6, 0xb6, 0xb9, 0x3f, 0xc0, 0x7a, 0x7e, 0xbf, 0xb5, 0x85, 0xc1, 0xbf,
  0xf8, 0xd7, 0x91, 0xbe, 0x0b, 0xfa, 0x94, 0x3e, 0xbb, 0xe6, 0x9b, 0xbf,
  0x0f, 0xa3, 0xc7, 0xbf, 0x0b, 0xab, 0xf5, 0x3f, 0xf6, 0x52, 0x80, 0x3f,
  0xad, 0x01, 0xa9, 0xbe, 0xa2, 0x2c, 0x90, 0x3c, 0xa3, 0x98, 0x2d, 0xbf,
  0xe1, 0xba, 0xea, 0x3f, 0xd0, 0x8f, 0xdf, 0xbf, 0xa4, 0x3c, 0x71, 0xbf,
  0x81, 0x21, 0xc6, 0xbe, 0xef, 0x25, 0x69, 0xbf, 0x76, 0xfe, 0xff, 0xff,
  0x04, 0x00, 0x00, 0x00, 0x60, 0x00, 0x00, 0x00, 0x52, 0x8f, 0x9f, 0xc0,
  0xe8, 0xc7, 0x5a, 0xc0, 0x8e, 0x57, 0x9b, 0xbe, 0x11, 0xac, 0x6c, 0xbf,
  0x1f, 0x0f, 0xf8, 0xbe, 0xe5, 0x4f, 0x33, 0x40, 0x44, 0x07, 0xa8, 0xc0,
  0xf7, 0xde, 0xee, 0x3f, 0x1f, 0x4d, 0x7c, 0x3f, 0x3b, 0x18, 0xb2, 0x3f,
  0x5a, 0xeb, 0x86, 0xc0, 0x5f, 0xeb, 0x8c, 0xc0, 0x63, 0x52, 0x76, 0xc0,
  0x02, 0xb4, 0x4c, 0xc0, 0x35, 0x87, 0x16, 0x3f, 0x74, 0x7c, 0x2c, 0x3f,
  0x82, 0xca, 0xc2, 0x3f, 0x3e, 0x3a, 0x9c, 0x3f, 0x75, 0xbc, 0x77, 0x40,
  0x7a, 0xc2, 0x77, 0x40, 0x25, 0x8f, 0x56, 0x40, 0xb5, 0x0c, 0x9a, 0xbf,
  0xaf, 0x54, 0x67, 0x3f, 0xdb, 0x70, 0x08, 0xc0, 0xe2, 0xfe, 0xff, 0xff,
  0x04, 0x00, 0x00, 0x00, 0x0c, 0x00, 0x00, 0x00, 0x9e, 0x34, 0x2a, 0x3f,
  0x77, 0x05, 0xa0, 0x3e, 0x9b, 0xcd, 0x87, 0xbf, 0xfa, 0xfe, 0xff, 0xff,
  0x04, 0x00, 0x00, 0x00, 0x40, 0x00, 0x00, 0x00, 0x4e, 0x3b, 0xf4, 0xba,
  0xe7, 0x66, 0x17, 0xbf, 0x79, 0xb5, 0xbe, 0xba, 0x0d, 0x63, 0x29, 0xbe,
  0x82, 0xd0, 0x27, 0xbf, 0x86, 0x6e, 0x22, 0xbf, 0x1a, 0x95, 0xb6, 0x3f,
  0xb4, 0x24, 0x14, 0x3f, 0x51, 0xe8, 0xa9, 0xbc, 0x22, 0xb1, 0x81, 0xb8,
  0x95, 0x29, 0x79, 0xbc, 0xf5, 0x80, 0xc4, 0x3f, 0xe8, 0x66, 0x1f, 0xbf,
  0x19, 0xae, 0xd6, 0xbe, 0x6d, 0xa9, 0xa7, 0xbe, 0x37, 0x40, 0xef, 0xbc,
  0x46, 0xff, 0xff, 0xff, 0x04, 0x00, 0x00, 0x00, 0x20, 0x00, 0x00, 0x00,
  0x14, 0x13, 0xbc, 0xbe, 0xe7, 0x8e, 0x0f, 0xbf, 0x9f, 0x46, 0x4a, 0xbf,
  0xda, 0x87, 0x10, 0xbf, 0x9d, 0x73, 0x5a, 0xbf, 0x30, 0x45, 0xc6, 0x3e,
  0x4e, 0xe7, 0xfe, 0xbe, 0x81, 0xae, 0xb3, 0x3f, 0xe0, 0xf8, 0xff, 0xff,
  0xe4, 0xf8, 0xff, 0xff, 0x0f, 0x00, 0x00, 0x00, 0x4d, 0x4c, 0x49, 0x52,
  0x20, 0x43, 0x6f, 0x6e, 0x76, 0x65, 0x72, 0x74, 0x65, 0x64, 0x2e, 0x00,
  0x01, 0x00, 0x00, 0x00, 0x14, 0x00, 0x00, 0x00, 0x00, 0x00, 0x0e, 0x00,
  0x18, 0x00, 0x14, 0x00, 0x10, 0x00, 0x0c, 0x00, 0x08, 0x00, 0x04, 0x00,
  0x0e, 0x00, 0x00, 0x00, 0x14, 0x00, 0x00, 0x00, 0x1c, 0x00, 0x00, 0x00,
  0x94, 0x01, 0x00, 0x00, 0x98, 0x01, 0x00, 0x00, 0x9c, 0x01, 0x00, 0x00,
  0x04, 0x00, 0x00, 0x00, 0x6d, 0x61, 0x69, 0x6e, 0x00, 0x00, 0x00, 0x00,
  0x06, 0x00, 0x00, 0x00, 0x4c, 0x01, 0x00, 0x00, 0x08, 0x01, 0x00, 0x00,
  0xb4, 0x00, 0x00, 0x00, 0x78, 0x00, 0x00, 0x00, 0x40, 0x00, 0x00, 0x00,
  0x04, 0x00, 0x00, 0x00, 0x1a, 0xff, 0xff, 0xff, 0x1c, 0x00, 0x00, 0x00,
  0x00, 0x00, 0x00, 0x09, 0x1c, 0x00, 0x00, 0x00, 0x20, 0x00, 0x00, 0x00,
  0x03, 0x00, 0x00, 0x00, 0x00, 0x00, 0x06, 0x00, 0x08, 0x00, 0x04, 0x00,
  0x06, 0x00, 0x00, 0x00, 0x00, 0x00, 0x80, 0x3f, 0x01, 0x00, 0x00, 0x00,
  0x0e, 0x00, 0x00, 0x00, 0x01, 0x00, 0x00, 0x00, 0x0d, 0x00, 0x00, 0x00,
  0x52, 0xff, 0xff, 0xff, 0x14, 0x00, 0x00, 0x00, 0x00, 0x00, 0x00, 0x08,
  0x10, 0x00, 0x00, 0x00, 0x14, 0x00, 0x00, 0x00, 0x02, 0x00, 0x00, 0x00,
  0xa4, 0xf9, 0xff, 0xff, 0x01, 0x00, 0x00, 0x00, 0x0d, 0x00, 0x00, 0x00,
  0x03, 0x00, 0x00, 0x00, 0x0c, 0x00, 0x00, 0x00, 0x04, 0x00, 0x00, 0x00,
  0x03, 0x00, 0x00, 0x00, 0x86, 0xff, 0xff, 0xff, 0x14, 0x00, 0x00, 0x00,
  0x00, 0x00, 0x00, 0x08, 0x14, 0x00, 0x00, 0x00, 0x18, 0x00, 0x00, 0x00,
  0x02, 0x00, 0x00, 0x00, 0xc6, 0xff, 0xff, 0xff, 0x00, 0x00, 0x00, 0x01,
  0x01, 0x00, 0x00, 0x00, 0x0c, 0x00, 0x00, 0x00, 0x03, 0x00, 0x00, 0x00,
  0x0b, 0x00, 0x00, 0x00, 0x05, 0x00, 0x00, 0x00, 0x01, 0x00, 0x00, 0x00,
  0xbe, 0xff, 0xff, 0xff, 0x1c, 0x00, 0x00, 0x00, 0x00, 0x00, 0x00, 0x08,
  0x1c, 0x00, 0x00, 0x00, 0x20, 0x00, 0x00, 0x00, 0x02, 0x00, 0x00, 0x00,
  0x00, 0x00, 0x06, 0x00, 0x08, 0x00, 0x07, 0x00, 0x06, 0x00, 0x00, 0x00,
  0x00, 0x00, 0x00, 0x01, 0x01, 0x00, 0x00, 0x00, 0x0b, 0x00, 0x00, 0x00,
  0x03, 0x00, 0x00, 0x00, 0x0a, 0x00, 0x00, 0x00, 0x06, 0x00, 0x00, 0x00,
  0x02, 0x00, 0x00, 0x00, 0x00, 0x00, 0x0e, 0x00, 0x18, 0x00, 0x14, 0x00,
  0x10, 0x00, 0x0c, 0x00, 0x0b, 0x00, 0x04, 0x00, 0x0e, 0x00, 0x00, 0x00,
  0x14, 0x00, 0x00, 0x00, 0x00, 0x00, 0x00, 0x15, 0x10, 0x00, 0x00, 0x00,
  0x14, 0x00, 0x00, 0x00, 0x01, 0x00, 0x00, 0x00, 0x60, 0xfa, 0xff, 0xff,
  0x01, 0x00, 0x00, 0x00, 0x0a, 0x00, 0x00, 0x00, 0x02, 0x00, 0x00, 0x00,
  0x09, 0x00, 0x00, 0x00, 0x07, 0x00, 0x00, 0x00, 0x00, 0x00, 0x0e, 0x00,
  0x14, 0x00, 0x00, 0x00, 0x10, 0x00, 0x0c, 0x00, 0x0b, 0x00, 0x04, 0x00,
  0x0e, 0x00, 0x00, 0x00, 0x10, 0x00, 0x00, 0x00, 0x00, 0x00, 0x00, 0x1c,
  0x0c, 0x00, 0x00, 0x00, 0x10, 0x00, 0x00, 0x00, 0x9c, 0xfa, 0xff, 0xff,
  0x01, 0x00, 0x00, 0x00, 0x09, 0x00, 0x00, 0x00, 0x02, 0x00, 0x00, 0x00,
  0x00, 0x00, 0x00, 0x00, 0x08, 0x00, 0x00, 0x00, 0x01, 0x00, 0x00, 0x00,
  0x0e, 0x00, 0x00, 0x00, 0x01, 0x00, 0x00, 0x00, 0x00, 0x00, 0x00, 0x00,
  0x0f, 0x00, 0x00, 0x00, 0x10, 0x05, 0x00, 0x00, 0xbc, 0x04, 0x00, 0x00,
  0x68, 0x04, 0x00, 0x00, 0x2c, 0x04, 0x00, 0x00, 0xec, 0x03, 0x00, 0x00,
  0xac, 0x03, 0x00, 0x00, 0x6c, 0x03, 0x00, 0x00, 0x2c, 0x03, 0x00, 0x00,
  0xf4, 0x02, 0x00, 0x00, 0x94, 0x02, 0x00, 0x00, 0x10, 0x02, 0x00, 0x00,
  0x7c, 0x01, 0x00, 0x00, 0xe0, 0x00, 0x00, 0x00, 0x60, 0x00, 0x00, 0x00,
  0x04, 0x00, 0x00, 0x00, 0x42, 0xfb, 0xff, 0xff, 0x00, 0x00, 0x00, 0x01,
  0x14, 0x00, 0x00, 0x00, 0x1c, 0x00, 0x00, 0x00, 0x1c, 0x00, 0x00, 0x00,
  0x0f, 0x00, 0x00, 0x00, 0x34, 0x00, 0x00, 0x00, 0x02, 0x00, 0x00, 0x00,
  0xff, 0xff, 0xff, 0xff, 0x03, 0x00, 0x00, 0x00, 0x2c, 0xfb, 0xff, 0xff,
  0x1b, 0x00, 0x00, 0x00, 0x53, 0x74, 0x61, 0x74, 0x65, 0x66, 0x75, 0x6c,
  0x50, 0x61, 0x72, 0x74, 0x69, 0x74, 0x69, 0x6f, 0x6e, 0x65, 0x64, 0x43,
  0x61, 0x6c, 0x6c, 0x5f, 0x31, 0x3a, 0x30, 0x00, 0x02, 0x00, 0x00, 0x00,
  0x01, 0x00, 0x00, 0x00, 0x03, 0x00, 0x00, 0x00, 0x9a, 0xfb, 0xff, 0xff,
  0x00, 0x00, 0x00, 0x01, 0x14, 0x00, 0x00, 0x00, 0x1c, 0x00, 0x00, 0x00,
  0x1c, 0x00, 0x00, 0x00, 0x0e, 0x00, 0x00, 0x00, 0x58, 0x00, 0x00, 0x00,
  0x02, 0x00, 0x00, 0x00, 0xff, 0xff, 0xff, 0xff, 0x03, 0x00, 0x00, 0x00,
  0x84, 0xfb, 0xff, 0xff, 0x3c, 0x00, 0x00, 0x00, 0x73, 0x65, 0x71, 0x75,
  0x65, 0x6e, 0x74, 0x69, 0x61, 0x6c, 0x5f, 0x31, 0x2f, 0x64, 0x65, 0x6e,
  0x73, 0x65, 0x5f, 0x32, 0x5f, 0x31, 0x2f, 0x4d, 0x61, 0x74, 0x4d, 0x75,
  0x6c, 0x3b, 0x73, 0x65, 0x71, 0x75, 0x65, 0x6e, 0x74, 0x69, 0x61, 0x6c,
  0x5f, 0x31, 0x2f, 0x64, 0x65, 0x6e, 0x73, 0x65, 0x5f, 0x32, 0x5f, 0x31,
  0x2f, 0x42, 0x69, 0x61, 0x73, 0x41, 0x64, 0x64, 0x00, 0x00, 0x00, 0x00,
  0x02, 0x00, 0x00, 0x00, 0x01, 0x00, 0x00, 0x00, 0x03, 0x00, 0x00, 0x00,
  0x16, 0xfc, 0xff, 0xff, 0x00, 0x00, 0x00, 0x01, 0x14, 0x00, 0x00, 0x00,
  0x1c, 0x00, 0x00, 0x00, 0x1c, 0x00, 0x00, 0x00, 0x0d, 0x00, 0x00, 0x00,
  0x74, 0x00, 0x00, 0x00, 0x02, 0x00, 0x00, 0x00, 0xff, 0xff, 0xff, 0xff,
  0x08, 0x00, 0x00, 0x00, 0x00, 0xfc, 0xff, 0xff, 0x58, 0x00, 0x00, 0x00,
  0x73, 0x65, 0x71, 0x75, 0x65, 0x6e, 0x74, 0x69, 0x61, 0x6c, 0x5f, 0x31,
  0x2f, 0x64, 0x65, 0x6e, 0x73, 0x65, 0x5f, 0x31, 0x5f, 0x32, 0x2f, 0x4d,
  0x61, 0x74, 0x4d, 0x75, 0x6c, 0x3b, 0x73, 0x65, 0x71, 0x75, 0x65, 0x6e,
  0x74, 0x69, 0x61, 0x6c, 0x5f, 0x31, 0x2f, 0x64, 0x65, 0x6e, 0x73, 0x65,
  0x5f, 0x31, 0x5f, 0x32, 0x2f, 0x52, 0x65, 0x6c, 0x75, 0x3b, 0x73, 0x65,
  0x71, 0x75, 0x65, 0x6e, 0x74, 0x69, 0x61, 0x6c, 0x5f, 0x31, 0x2f, 0x64,
  0x65, 0x6e, 0x73, 0x65, 0x5f, 0x31, 0x5f, 0x32, 0x2f, 0x42, 0x69, 0x61,
  0x73, 0x41, 0x64, 0x64, 0x00, 0x00, 0x00, 0x00, 0x02, 0x00, 0x00, 0x00,
  0x01, 0x00, 0x00, 0x00, 0x08, 0x00, 0x00, 0x00, 0xae, 0xfc, 0xff, 0xff,
  0x00, 0x00, 0x00, 0x01, 0x14, 0x00, 0x00, 0x00, 0x1c, 0x00, 0x00, 0x00,
  0x1c, 0x00, 0x00, 0x00, 0x0c, 0x00, 0x00, 0x00, 0x6c, 0x00, 0x00, 0x00,
  0x02, 0x00, 0x00, 0x00, 0xff, 0xff, 0xff, 0xff, 0x10, 0x00, 0x00, 0x00,
  0x98, 0xfc, 0xff, 0xff, 0x52, 0x00, 0x00, 0x00, 0x73, 0x65, 0x71, 0x75,
  0x65, 0x6e, 0x74, 0x69, 0x61, 0x6c, 0x5f, 0x31, 0x2f, 0x64, 0x65, 0x6e,
  0x73, 0x65, 0x5f, 0x31, 0x2f, 0x4d, 0x61, 0x74, 0x4d, 0x75, 0x6c, 0x3b,
  0x73, 0x65, 0x71, 0x75, 0x65, 0x6e, 0x74, 0x69, 0x61, 0x6c, 0x5f, 0x31,
  0x2f, 0x64, 0x65, 0x6e, 0x73, 0x65, 0x5f, 0x31, 0x2f, 0x52, 0x65, 0x6c,
  0x75, 0x3b, 0x73, 0x65, 0x71, 0x75, 0x65, 0x6e, 0x74, 0x69, 0x61, 0x6c,
  0x5f, 0x31, 0x2f, 0x64, 0x65, 0x6e, 0x73, 0x65, 0x5f, 0x31, 0x2f, 0x42,
  0x69, 0x61, 0x73, 0x41, 0x64, 0x64, 0x00, 0x00, 0x02, 0x00, 0x00, 0x00,
  0x01, 0x00, 0x00, 0x00, 0x10, 0x00, 0x00, 0x00, 0x3e, 0xfd, 0xff, 0xff,
  0x00, 0x00, 0x00, 0x01, 0x14, 0x00, 0x00, 0x00, 0x1c, 0x00, 0x00, 0x00,
  0x1c, 0x00, 0x00, 0x00, 0x0b, 0x00, 0x00, 0x00, 0x5c, 0x00, 0x00, 0x00,
  0x02, 0x00, 0x00, 0x00, 0xff, 0xff, 0xff, 0xff, 0x02, 0x00, 0x00, 0x00,
  0x28, 0xfd, 0xff, 0xff, 0x43, 0x00, 0x00, 0x00, 0x73, 0x65, 0x71, 0x75,
  0x65, 0x6e, 0x74, 0x69, 0x61, 0x6c, 0x5f, 0x31, 0x2f, 0x69, 0x6e, 0x70,
  0x75, 0x74, 0x5f, 0x6e, 0x6f, 0x72, 0x6d, 0x5f, 0x31, 0x2f, 0x74, 0x72,
  0x75, 0x65, 0x64, 0x69, 0x76, 0x3b, 0x73, 0x65, 0x71, 0x75, 0x65, 0x6e,
  0x74, 0x69, 0x61, 0x6c, 0x5f, 0x31, 0x2f, 0x69, 0x6e, 0x70, 0x75, 0x74,
  0x5f, 0x6e, 0x6f, 0x72, 0x6d, 0x5f, 0x31, 0x2f, 0x4d, 0x61, 0x78, 0x69,
  0x6d, 0x75, 0x6d, 0x00, 0x02, 0x00, 0x00, 0x00, 0x01, 0x00, 0x00, 0x00,
  0x02, 0x00, 0x00, 0x00, 0xbe, 0xfd, 0xff, 0xff, 0x00, 0x00, 0x00, 0x01,
  0x14, 0x00, 0x00, 0x00, 0x1c, 0x00, 0x00, 0x00, 0x1c, 0x00, 0x00, 0x00,
  0x0a, 0x00, 0x00, 0x00, 0x38, 0x00, 0x00, 0x00, 0x02, 0x00, 0x00, 0x00,
  0xff, 0xff, 0xff, 0xff, 0x02, 0x00, 0x00, 0x00, 0xa8, 0xfd, 0xff, 0xff,
  0x1d, 0x00, 0x00, 0x00, 0x73, 0x65, 0x71, 0x75, 0x65, 0x6e, 0x74, 0x69,
  0x61, 0x6c, 0x5f, 0x31, 0x2f, 0x69, 0x6e, 0x70, 0x75, 0x74, 0x5f, 0x6e,
  0x6f, 0x72, 0x6d, 0x5f, 0x31, 0x2f, 0x53, 0x75, 0x62, 0x00, 0x00, 0x00,
  0x02, 0x00, 0x00, 0x00, 0x01, 0x00, 0x00, 0x00, 0x02, 0x00, 0x00, 0x00,
  0x6a, 0xfe, 0xff, 0xff, 0x00, 0x00, 0x00, 0x01, 0x10, 0x00, 0x00, 0x00,
  0x10, 0x00, 0x00, 0x00, 0x09, 0x00, 0x00, 0x00, 0x14, 0x00, 0x00, 0x00,
  0xf4, 0xfd, 0xff, 0xff, 0x07, 0x00, 0x00, 0x00, 0x43, 0x6f, 0x6e, 0x73,
  0x74, 0x5f, 0x31, 0x00, 0x02, 0x00, 0x00, 0x00, 0x01, 0x00, 0x00, 0x00,
  0x02, 0x00, 0x00, 0x00, 0x9e, 0xfe, 0xff, 0xff, 0x00, 0x00, 0x00, 0x01,
  0x10, 0x00, 0x00, 0x00, 0x10, 0x00, 0x00, 0x00, 0x08, 0x00, 0x00, 0x00,
  0x1c, 0x00, 0x00, 0x00, 0x28, 0xfe, 0xff, 0xff, 0x0f, 0x00, 0x00, 0x00,
  0x61, 0x72, 0x69, 0x74, 0x68, 0x2e, 0x63, 0x6f, 0x6e, 0x73, 0x74, 0x61,
  0x6e, 0x74, 0x36, 0x00, 0x02, 0x00, 0x00, 0x00, 0x01, 0x00, 0x00, 0x00,
  0x02, 0x00, 0x00, 0x00, 0xda, 0xfe, 0xff, 0xff, 0x00, 0x00, 0x00, 0x01,
  0x10, 0x00, 0x00, 0x00, 0x10, 0x00, 0x00, 0x00, 0x07, 0x00, 0x00, 0x00,
  0x1c, 0x00, 0x00, 0x00, 0x64, 0xfe, 0xff, 0xff, 0x0f, 0x00, 0x00, 0x00,
  0x61, 0x72, 0x69, 0x74, 0x68, 0x2e, 0x63, 0x6f, 0x6e, 0x73, 0x74, 0x61,
  0x6e, 0x74, 0x35, 0x00, 0x02, 0x00, 0x00, 0x00, 0x10, 0x00, 0x00, 0x00,
  0x02, 0x00, 0x00, 0x00, 0x16, 0xff, 0xff, 0xff, 0x00, 0x00, 0x00, 0x01,
  0x10, 0x00, 0x00, 0x00, 0x10, 0x00, 0x00, 0x00, 0x06, 0x00, 0x00, 0x00,
  0x1c, 0x00, 0x00, 0x00, 0xa0, 0xfe, 0xff, 0xff, 0x0f, 0x00, 0x00, 0x00,
  0x61, 0x72, 0x69, 0x74, 0x68, 0x2e, 0x63, 0x6f, 0x6e, 0x73, 0x74, 0x61,
  0x6e, 0x74, 0x34, 0x00, 0x02, 0x00, 0x00, 0x00, 0x08, 0x00, 0x00, 0x00,
  0x10, 0x00, 0x00, 0x00, 0x52, 0xff, 0xff, 0xff, 0x00, 0x00, 0x00, 0x01,
  0x10, 0x00, 0x00, 0x00, 0x10, 0x00, 0x00, 0x00, 0x05, 0x00, 0x00, 0x00,
  0x1c, 0x00, 0x00, 0x00, 0xdc, 0xfe, 0xff, 0xff, 0x0f, 0x00, 0x00, 0x00,
  0x61, 0x72, 0x69, 0x74, 0x68, 0x2e, 0x63, 0x6f, 0x6e, 0x73, 0x74, 0x61,
  0x6e, 0x74, 0x33, 0x00, 0x02, 0x00, 0x00, 0x00, 0x03, 0x00, 0x00, 0x00,
  0x08, 0x00, 0x00, 0x00, 0x8e, 0xff, 0xff, 0xff, 0x00, 0x00, 0x00, 0x01,
  0x10, 0x00, 0x00, 0x00, 0x10, 0x00, 0x00, 0x00, 0x04, 0x00, 0x00, 0x00,
  0x1c, 0x00, 0x00, 0x00, 0x18, 0xff, 0xff, 0xff, 0x0f, 0x00, 0x00, 0x00,
  0x61, 0x72, 0x69, 0x74, 0x68, 0x2e, 0x63, 0x6f, 0x6e, 0x73, 0x74, 0x61,
  0x6e, 0x74, 0x32, 0x00, 0x01, 0x00, 0x00, 0x00, 0x03, 0x00, 0x00, 0x00,
  0xc6, 0xff, 0xff, 0xff, 0x00, 0x00, 0x00, 0x01, 0x10, 0x00, 0x00, 0x00,
  0x10, 0x00, 0x00, 0x00, 0x03, 0x00, 0x00, 0x00, 0x1c, 0x00, 0x00, 0x00,
  0x50, 0xff, 0xff, 0xff, 0x0f, 0x00, 0x00, 0x00, 0x61, 0x72, 0x69, 0x74,
  0x68, 0x2e, 0x63, 0x6f, 0x6e, 0x73, 0x74, 0x61, 0x6e, 0x74, 0x31, 0x00,
  0x01, 0x00, 0x00, 0x00, 0x10, 0x00, 0x00, 0x00, 0x00, 0x00, 0x16, 0x00,
  0x18, 0x00, 0x14, 0x00, 0x00, 0x00, 0x10, 0x00, 0x0c, 0x00, 0x08, 0x00,
  0x00, 0x00, 0x00, 0x00, 0x00, 0x00, 0x07, 0x00, 0x16, 0x00, 0x00, 0x00,
  0x00, 0x00, 0x00, 0x01, 0x10, 0x00, 0x00, 0x00, 0x10, 0x00, 0x00, 0x00,
  0x02, 0x00, 0x00, 0x00, 0x1c, 0x00, 0x00, 0x00, 0xa0, 0xff, 0xff, 0xff,
  0x0e, 0x00, 0x00, 0x00, 0x61, 0x72, 0x69, 0x74, 0x68, 0x2e, 0x63, 0x6f,
  0x6e, 0x73, 0x74, 0x61, 0x6e, 0x74, 0x00, 0x00, 0x01, 0x00, 0x00, 0x00,
  0x08, 0x00, 0x00, 0x00, 0x00, 0x00, 0x16, 0x00, 0x1c, 0x00, 0x18, 0x00,
  0x00, 0x00, 0x14, 0x00, 0x10, 0x00, 0x0c, 0x00, 0x00, 0x00, 0x00, 0x00,
  0x08, 0x00, 0x07, 0x00, 0x16, 0x00, 0x00, 0x00, 0x00, 0x00, 0x00, 0x01,
  0x14, 0x00, 0x00, 0x00, 0x20, 0x00, 0x00, 0x00, 0x20, 0x00, 0x00, 0x00,
  0x01, 0x00, 0x00, 0x00, 0x3c, 0x00, 0x00, 0x00, 0x02, 0x00, 0x00, 0x00,
  0xff, 0xff, 0xff, 0xff, 0x02, 0x00, 0x00, 0x00, 0x04, 0x00, 0x04, 0x00,
  0x04, 0x00, 0x00, 0x00, 0x1e, 0x00, 0x00, 0x00, 0x73, 0x65, 0x72, 0x76,
  0x69, 0x6e, 0x67, 0x5f, 0x64, 0x65, 0x66, 0x61, 0x75, 0x6c, 0x74, 0x5f,
  0x6b, 0x65, 0x72, 0x61, 0x73, 0x5f, 0x74, 0x65, 0x6e, 0x73, 0x6f, 0x72,
  0x3a, 0x30, 0x00, 0x00, 0x02, 0x00, 0x00, 0x00, 0x01, 0x00, 0x00, 0x00,
  0x02, 0x00, 0x00, 0x00, 0x04, 0x00, 0x00, 0x00, 0x40, 0x00, 0x00, 0x00,
  0x24, 0x00, 0x00, 0x00, 0x14, 0x00, 0x00, 0x00, 0x04, 0x00, 0x00, 0x00,
  0xdc, 0xff, 0xff, 0xff, 0x19, 0x00, 0x00, 0x00, 0x00, 0x00, 0x00, 0x19,
  0xe8, 0xff, 0xff, 0xff, 0x09, 0x00, 0x00, 0x00, 0x00, 0x00, 0x00, 0x09,
  0xf4, 0xff, 0xff, 0xff, 0x12, 0x00, 0x00, 0x00, 0x00, 0x00, 0x00, 0x12,
  0x0c, 0x00, 0x0c, 0x00, 0x0b, 0x00, 0x00, 0x00, 0x00, 0x00, 0x04, 0x00,
  0x0c, 0x00, 0x00, 0x00, 0x29, 0x00, 0x00, 0x00, 0x00, 0x00, 0x00, 0x29
};

